[PAD]
[SEP]
[CLS]
[UNK]
[MASK]
[unused1]
[unused2]
[unused3]
[unused4]
[unused5]
[unused6]
[unused7]
[unused8]
[unused9]
[unused10]
[unused11]
[unused12]
[unused13]
[unused14]
[unused15]
[unused16]
[unused17]
[unused18]
[unused19]
[unused20]
[unused21]
[unused22]
[unused23]
[unused24]
[unused25]
[unused26]
[unused27]
[unused28]
[unused29]
[unused30]
[unused31]
[unused32]
[unused33]
[unused34]
[unused35]
[unused36]
[unused37]
[unused38]
[unused39]
[unused40]
[unused41]
[unused42]
[unused43]
[unused44]
[unused45]
[unused46]
[unused47]
[unused48]
[unused49]
[unused50]
[unused51]
[unused52]
[unused53]
[unused54]
[unused55]
[unused56]
[unused57]
[unused58]
[unused59]
[unused60]
[unused61]
[unused62]
[unused63]
[unused64]
[unused65]
[unused66]
[unused67]
[unused68]
[unused69]
[unused70]
[unused71]
[unused72]
[unused73]
[unused74]
[unused75]
[unused76]
[unused77]
[unused78]
[unused79]
[unused80]
[unused81]
[unused82]
[unused83]
[unused84]
[unused85]
[unused86]
[unused87]
[unused88]
[unused89]
[unused90]
[unused91]
[unused92]
[unused93]
[unused94]
[unused95]
[unused96]
[unused97]
[unused98]
[unused99]
0
1
2
3
4
5
6
7
8
9
a
b
c
d
e
f
##1
##e
##b
##2
##5
##4
##0
##8
##a
##7
##c
##f
##3
##9
##d
##6
##00
000
00
0000
##08
##01
08
##3c
##af
##40
##83
##45
##50
01
##90
##c6
##96
##ff
##80
45
##a0
##06
##32
##ac
##0a
##41
##05
##36
##82
##7f
##de
##dc
0a
96
##4b
11
0800
02
##43
##8e
##be
##b6
##77
##42
##98
6f
##4c
##3ca
##ad
83ca
##a2
##76
caf
##35
##91
##7c
##b8
##4e
##9f
##46
##1c
##ae
##25
##48
##9d
##11
##9c
caf0
##fe
##73
##9e
##d5
##92
##75
65
##d6
##bc
4500
06
##4f
32
##8c
##16
##33
##7e
##0f
##b2
##4a
##000
##95
##d2
##b5
##72
##1e
##70
##12
##9a
##10
##4d
##ba
##bf
98
##3e
##7d
##78
##0e
##3f
##a6
##ce
36
##02
##a5
##93
##15
0045
##bd
##f5
b8
##096
##1d
c2
##fc
0001
##47
de
##aa
##bb
##85
##f6
05
##86
be
##b3
##f2
##0c
a2
75
##97
##1f
1c
##3d
4000
##9b
##8a
##8d
6e
##8f
##66
42
##cc
ae
##7a
##94
ce
##b1
##71
##dd
12
62
##30
##b0
41
##55
##3a
801
##6e
##c2
4e
##62
##31
##81
##44
fe
##7b
1e
##c5
f2
##cf
82
##df
5e
##99
2e
7f
##65
2f
92
7e
52
85
0e
##6f
8e
f5
9890
b2
9096
96a0
22
ee
002
cf
35
9e
72
3e
##74
e2
##38
##a1
55
##79
##d1
##34
4c
50
d2
0f
56
76
15
##88
43
a5
##c6f
25
e5
##b9
95
b5
ff
##39
e7
c5
ac
##da
d5
16
##b4
##d0
f6
46
b8ac
ac6f
dc
9f
0040
##89
0a08
66
8c
##400
ec
##1a
73
3f
86
d6
6c
c6
10
a6
##37
2d
4f
fc
##49
1f
9c
##b7
e6
b6
cc
51
5c
bc
1b
26
91
8f
7c
0c
6d
57
2c
f05
3c
0002
ba
8a
0080
0d
5f
##84
f0
ef
6f36
af
33
bf
##3b
ad
a0
df
0108
##011
##8b
fff
5d
aa
4a
31
0101
03
##0d
f3
9d
906
ab
d1
4d
81
7d
fd
##87
3d
61
a1
##058
##07
582
ed
080a
1d
e8e
dd
##c65
8d
28
e8
f06
38
8011
d3
de00
23
d8
4b
6a
ffff
##d9
##900
18
bd
##a4
bede
48
cd
4011
005
1a
e1
21
8010
cb
f1
da
##db
##14
3a
582f
f096
a058
db
2a
71
ea
adc
5a
7a
70
c8
##17
a8
b1
5b
c1
323c
e8e7
6550
e732
ca
3c65
9a
53
63
fa
eb
f065
83
e3
68
bb
78
##d3
d9
93
4b6
58
04
88
361c
##006
fb
0100
b3
80
f057
a3
1ca2
0808
c3
13
2b
##a8
9b
##008
7b
##d8
8b
20
0b
##04
##d4
f8
##a9
30
adc2
##a7
6b
97
##d7
4341
47
##18
350
##e8
60
##a3
0a00
##19
##13
3b
##1b
d0
79
0032
##ab
37
67
77
4b69
b0
e0
c0
40
17
4143
90
27
87
c7
##03
8c6
a7
69
59
525
07
##09
a01
000a
##c1
##775
d7
07c
b9
29
##0b
f7
b7
e9
c9
##c8
49
##c9
39
a4
89
09
a9
0004
f9
##2d
##61
94
34
54
0050
64
5400
99
f4
##d51
##e9
0027
##c0
0012
19
020f
3502
1bae
a01b
0208
5254
##eb
1235
##6c
8c62
758c
2775
##cb
0210
006f
906f
##c7
44
##ef
##64
##c4
5008
14
##60
##6d
74
100
0005
##63
##fb
##28
##e4
##ca
##c3
##67
##cd
##23
e4
##68
##e7
088a
1100
##6a
##6b
##69
0110
4006
b4
84
d4
24
50e
##e6
##ed
##2a
c4
##0f2
##29
##2b
##e5
##2e
9d51
##22
##fd
##ea
##f7
##f3
005b
##21
##e3
##24
##fa
##27
##f1
##9ab
##2c
##20
##ec
a208
##f0
##ee
##26
##e2
##f9
00ff
##f4
10a
##2f
##f8
0034
##e0
2f08
##805
##e1
0550
##252
##fe8
501
906d
50ba
0006
706
4c7f
c24c
a050
f041
##902
3607
07cf
f0f2
01bb
0083
##50a
efe
##a0d
5783
cf7f
e66
616
6f39
c2cf
39ab
ab73
108
f056
0a0
d942
##1d8
6900
##5a
##51
##90a
##b6e
ac4a
##48c
##338
ff5
##7f4
##aaa
##59
2fb8
ffc
##5c
4548
##5d
4ad
##083
9683
7ff
50a
001e
4805
14e
555
##5e
6252
##5f
ae08
6208
60e
c8e
##703
##770
782
##5b
##bcb
##57
69f
##53
##4cd
cd2
##56
##52
##54
f1e
##985
##ccc
##dcc
cff
##58
0016
c1d8
e9c
##a05
b902
dc89
02dc
aa0d
##40a
8000
5010
5098
0003
##76a
007f
8a00
##c60
80c
##43f
007b
##080
51c
0023
008f
03f
##333
##307
7f83
af2
69c
##de9
636
c1e
##b55
232
##7f5
##d60
2fe8
1008
##4b9
47f4
046
##917
c24b
6583
0600
cf5
##4ce
5100
4338
50ef
f576
07c2
e48c
8cdb
4183
2d92
0f83
8006
eb6e
efeb
7f0a
650a
##303
7f11
1000
0020
##3e8
cfb8
ba08
d3aa
ae98
ba98
4ae
0089
4200
00fc
5be
##32d
##9aa
8900
696
##439
7308
##104
70e
d194
5555
aaaa
##1d9
0037
69e
##aa4
eb00
##9fa
6400
0400
##4d9
caf3
cece
##904
7061
a2b8
##418
045
101
ece
##406
6164
##7d1
5bc
802
##00a
5683
##ba4
816
##8ce
cf08
##7d4
##36e
0477
50aa
0033
646
ec0a
cce
ef6
14eb
60ec
0a82
7770
82be
91b8
##a0a
1703
0200
##41b
6d6
506
851f
890a
##c69
4141
##309
##c59
798
806
3306
0a79
2f5
7f2
211
##a06
f632
##8ca
94cd
##765
##9e0
002e
383
b870
##45f
f283
7fc
0562
782b
2bcb
70bc
0576
##0f3
##bf1
346
##47a
##bd9
d16
042
f62
cb9f
666
##05a
d89d
516
##9a1
7573
##331
415
766
3a2
##76e
96c1
##402
746
916
102
702
6ff
aa00
8175
##df3
faf
##da8
##905
cccc
##4fa
cff1
8dcc
cc91
4f81
##41a
4a00
7ce
##931
91be
##80a
325
73be
##734
0ac
b82
508
2c2
##9e6
5b2
##4c2
1001
##352
000e
##001
4af
ff00
bcbe
##91f
5ac
##363
0882
5ae
##450
a9c
89d
a82
342
03c
542
##3a8
##de4
##730
bbe
88e
502
##802
03e
b6e
7b6
4508
cac
fce
9200
##9fb
##de2
5a5
##a04
34e
343
##bdd
##c61
##00c
2a6
##803
17c
##403
142
48e
202
##d5b
##a1b
57c
096
##36c
301
##0f8
##004
##930
##b03
##c51
90e
##938
f25
d85
##444
6d2
##479
3a6
002c
##1f9
716
282
c65
##7f0
##4d1
d1e
b1c
d65
6f11
0a02
8fc
a298
##b86
005e
0fe
##b89
##7a9
##b14
##ba1
##702
##7d9
0dc
d8e
##a02
c01
496
5b5
786
6dc
##007
50c
##334
796
##502
##4f4
##76c
##4d8
d46
##3d4
##939
##9e8
04b
686
642
##de8
##733
2d6
1002
9f84
3ae
##903
##906
5b6
df6
8018
##971
##405
002d
40c
8ac
##b85
b01
##761
255
34b
##486
##d14
0008
8ad
742
7fe
##76f
586
##9b9
0af
64e
##93d
##914
##759
##4dd
##90b
##de0
##9ee
##769
306
##33d
2000
##773
37c
##789
##40c
762
10e
##806
##414
##72d
##330
e76a
##979
##7e9
312
58e
80e
286
##986
bb2
##7a1
a3c
##4c1
baf
215
8f6
##c57
##484
##35b
##bd1
##416
##0ad
c11
216
0028
##474
4ac
##40d
fae
596
##4fd
f66
31e
a2e8
##7e8
##d0b
76e
##3d0
##73d
##ba6
5a2
##da9
##92b
##4a9
##95a
##4ca
6d5
416
##05b
4a6
##93a
##b81
3ad
##337
##404
3af
4f5
##951
b06
486
04e
##b19
5d2
eaf
##449
7398
515
##4cf
003f
0c2
##dd1
f400
ff6
##b88
##002
285
dbe
dd2
40e
442
##786
##3a4
3800
27c
2f2
##314
##ded
24b
##dfa
##de3
5ce
f86
##4c0
f4e
##717
##b09
##70b
##95c
##949
##4a8
5f6
##487
##3d3
##909
##de6
8ff
dce
51e
2be
056e
e25
##779
##304
386
##471
4be
##8a9
302
662
##365
##319
##778
466
406
##41d
##d09
##351
##055
##dd7
206
##3db
f02
##72a
546
##777
##d0d
##928
##c5a
64b
##ddb
##749
##804
385
##da7
61e
##503
##bb9
##737
ea5
##95d
7600
4b00
44e
##353
146
##dea
91e
345
##958
##4d7
e000
##3d1
##937
##b0d
783
c12
18e
8a01
##73a
5a6
##9f8
28e
##7eb
316
##7a4
##bd4
##b49
##35d
982
##31b
db00
##911
003a
##92d
##d03
6a6
##7b9
7be
##4a1
4f6
5ff
##a14
fd2
a4e
##3e6
89c
##959
##dd8
485
2a2
##70d
##da3
##7da
606
4d6
425
d42
fa6
##384
5af
7ae
66e
##3d7
##48f
##9e9
##de5
##944
446
715
##dec
##4c8
7af
4ce
882
##dab
7a5
##dfd
##9a5
##714
##3fd
##339
##766
##758
##b8c
##43e
##9d6
##774
5d6
##b31
##35a
##d1a
##415
afe
##910
##d13
3d2
##aa1
##751
##bda
##358
##723
c06
##72b
##b8d
##4f3
2d2
##361
##9b0
##95e
##75d
##7e6
##417
##489
615
##bdb
##763
7a6
##b17
##3a9
##430
##4c7
##753
##731
004e
##50c
bb6
##b3d
6a5
382
##41f
##da4
##952
##90d
9ad
a8e
##dd9
1d6
##488
d6e
##77d
##b84
f55
##974
##30d
##78b
##7d3
dc2
78e
##756
##4fb
##7d8
##d17
##7d0
6af
##36f
785
0be
##48d
946
##a0b
##b04
d83
106
846
842
f0e
##4a6
##90c
e96
512
##3a1
0ff
##43a
##362
71e
##d18
c8e1
fd6
0a0a
6ce
396
81e
283
##75a
##916
196
##999
##4cb
##d04
##3da
##4cc
##dd0
##c5d
712
61c
24e
##b53
##cfd
ea6
##7a8
##7f1
##bfb
##7a3
##4ab
eae
886
##1fd
e65
##95b
##9b4
aa2
2d11
##91d
##b87
##102
##9a8
##76d
##b07
##4d0
fbe
##cc9
##dfb
##30b
10c
##934
##91e
##8f9
##48a
aff
##b1b
585
##411
##d1b
##b0b
##359
8be
##bf0
74e
942
##dd4
68e
e1e
315
0604
##def
##41e
d9c
##752
##ba5
a1c
##7fb
51c1
##b1a
##481
##b8f
##919
612
##760
##3dd
##728
##762
7f6
8f5
##722
b46
1ae
##9f0
bce
e4e
##764
6b6
##4a3
##4c4
##9d1
f82
##509
##ddf
7b2
##bfa
##413
996
##b3a
##bbb
##738
a12
##72e
a4b
##de7
##4fc
##4f5
569d
a6e
##40f
daf
##48b
26e
##df0
##bd8
##7e2
##4c3
##3e0
##d07
##920
201
060a
d0e
##3d9
##72c
##7ec
##b8b
##47b
8a6
##729
##deb
c16
46e
##40b
682
##b37
##cc7
7a2
##d19
##419
a06
862
##df4
##388
##4db
##4d4
##924
8fe
##4a4
##b5b
8f2
##b30
##92c
##bb3
##bf6
##73f
##c62
##918
##bd3
##005
##77c
##4a5
##389
##bd0
465
6ae
##4f2
##bf5
##354
16e
##921
##36d
##9a3
##739
47c
##b51
56e
##3a3
##bb4
##954
##409
566
da6
##d5d
a46
##bf2
685
##75f
##768
##4c5
94e
ed2
##7f9
##a18
##bf9
##7fc
##dd3
##4aa
##43d
3be
##dee
##33f
96e9
##4f9
e46
##3e9
765
49c
e06
##3ab
##bb0
2ae
##721
##367
##485
##35f
##369
##50d
6be
##b3b
##35e
e62
##103
##356
445
##df9
##df7
e6e
e55
##366
645
##c6d
##bfc
##929
##df1
3a5
9d2
##4df
4d2
355
##410
##9a4
##7e0
##953
ed6
##df8
##709
##317
##bfd
41e
##355
##31a
##41c
2f6
##956
##d53
##368
246
84e
##b59
9600
1c00
##97a
d86
7d6
625
##431
c96
##364
##784
c897
##b5d
d66
7d2
6000
##40e
f16
##437
##b39
e16
ca6
a62
##313
##4f1
##3ec
f6e
54e
##38b
9a6
53c
##bb1
f43f
182
8af
##7e7
98e
##bf4
##957
##407
4a5
##349
##4a7
##412
e0e
##726
ebe
##70c
##71a
##9b1
1ce
##4f6
##ba8
##4da
##a03
##9f1
c42
##7fe
a42
##7fa
##9f9
##bcf
##ddd
##724
##b13
##438
e82
##b18
d96
##bcc
ef2
b4e
20e
0b2
##4c9
e86
##c63
##72f
155
482
9f6
f01
##92a
##91c
##4f8
bff
a66
##dda
##b5a
##4d3
##9a9
242
b12
ffe
##b8a
732
1af
##8d1
##4f7
3300
##4f0
81c
##0fa
##720
##98f
##9f2
602
c86
bae
##b34
##8c8
##0fb
##788
b66
##bab
ba6
##80c
0647
##35c
a0e
##33a
611
8ce
##90e
2e11
##78d
866
##7fd
##3df
f96
19c
186
896
##71b
##bdf
##357
##7a7
##772
##75b
1a2
##77a
##3d8
eb2
b16
##c64
##776
0a01
3f11
##93b
##baa
9af
##91a
##33e
##80d
f46
##915
##de1
0f6
##9ec
6c2
eff
##75e
##718
##781
##95f
3c2
##b38
4a2
##ba3
3d6
2ce
a96
##3f9
##8c1
59c
a86
fe00
##bf8
##bf7
##318
##757
##9b7
##76b
##a0c
ba5
##cf3
296
1a6
8ae
8a2
a55
d15
##713
d06
##7e5
##92f
##727
##75c
##77e
aaf
##7ea
##922
##cc0
##ba9
##bf3
1be
1a5
af6
##434
c6e
##360
8b6
##955
5f5
f8e
##435
cf6
41c
30e
##7f2
0ce
##10d
##73b
##bb7
9ff
166
63c
##bd7
e83
##ccf
9a2
002f
2b6
883
901
##d57
##7b7
##9f4
##767
2ff
6a2
a83
##923
##704
##9f6
ff2
ea2
##7f8
e42
2af
c66
##907
##755
21c
##90f
##0fd
9ae
4ff
##77b
3ce
##7db
##b52
21e
b0e
##9e1
3f6
##8cc
##771
##0fc
##70e
af5
fc2
##92e
##7f3
86e
0d6
5c2
##ba7
401
##0f0
##9ea
##d5e
4ad3
1ff
abe
33c
##05f
##d5c
1d2
14b
##3ea
08f6
##754
##78a
ba2
c4e
ce00
266
##707
a11
##c6c
c85
dae
##7e1
311
##7ed
##9d4
38e
##9e2
212
##8cb
65d3
db6
##3fc
7c2
##33b
##7b4
412
c83
aaac
##989
##73e
23c
b42
##7ef
##78f
##912
##7e3
##7e4
##3f7
5dc
aa6
a16
683
##a09
0fac
8b2
b96
a1e
41ac
701
3ff
##8cd
##7f6
##7dd
601
c3c
##913
912
ca2
##9e3
##9ef
c15
e02
##7f7
5fe
##d58
d4e
##00d
##d56
##926
032
9be
1f6
##bc1
##3f0
##9d0
##7df
##719
##059
001c
##9f3
c82
d82
885
##97b
##3f5
##9a6
##785
fa5
##c6e
##a17
a85
##a07
##981
##c56
50b8
##3f6
##506
0b6
b8e
b15
0806
##3a7
ca5
fa2
##91b
c46
##9a7
##7d7
4a05
5083
##7ab
##8cf
bf6
##0f9
##36a
dff
0d2
c0e
b1e
ec2
5f2
b65
##cc4
855
##9da
##7ee
5e00
##cf4
##cfb
c02
##387
##cfa
##c58
##003
f83
##433
6ad
09c
##787
67c
##c5e
7dc
b25
3b6
##9ed
##cf0
##cc1
##8c0
##987
##988
cae
fb6
44b
##d5f
31c
74b
bac
39c
d4b
##9d9
##9fe
f85
f42
f243
##053
##aa8
5147
##a13
df5
##d52
##ccd
##9dd
da2
165
e1c
##9d5
##3e1
##43b
b55
##d59
##089
##d5a
562
cbe
b83
##c5b
eb6
9ce
##a0f
8c2
b4b
##9f5
2a5
##3f1
77c
1b6
##927
##1d1
##054
##0f1
0a9d
c7c
f1c
fe80
##9db
##a1a
##cf1
ace
5fc
##cf9
812
##ccb
bf2
##3f3
##a0e
aae
a7c
f49d
4dc
6e0a
##9eb
##3ef
##bc0
##aa3
##50b
##c6a
b11
632
da5
b32
4f2
##8c2
##3fa
332
902
##8c4
8a5
##0f5
ff53
##505
##809
##d55
##b56
955
3ac
1800
##051
84b
97c
##504
983
##9d2
##1df
0f5
ff52
##05d
5ad
##0f6
##b5e
c9c
9b6
545
##bc2
b9c
43c
##cca
e85
3f2
##9fc
c55
4fc
2ac
dac
##bca
583
fb2
##cc2
##c5c
##0f7
7f5
d62
162
ffc1
a02
##b58
##0f4
##36b
4b08
511
f3c
94b
ad2
8d6
##3ee
911
aa5
d01
b02
##056
##9fd
##9f7
##807
7643
183
bd6
b62
##aa9
##8c3
38f5
5207
##10c
915
##3fb
db08
262
##8c7
711
3206
##3f2
73c
f9c
##d54
##9e4
d1c
##05e
825
##c5f
b7c
d55
##b5f
2b2
ff02
f45
462
845
d3c
f11
##c68
c1e4
ac2
f15
cc2
ad6
##cc8
b3c
9b2
##bce
##bc3
745
ffc2
e12
cb6
08de
483
##8c9
##80e
6ac
##c52
##b5c
6b2
c1c
##aab
##c53
##c6b
d02
5307
e4b
d7c
##b54
932
13c
##3e5
dd6
fad
##8c5
9d6
8d2
##c66
29c
70a
79c
##05c
##c54
##cc5
##9e7
54b
##bc8
##80b
c2e4
3200
9fe
##3ed
4fe
57f5
eb55
ab6
fac
185
4c2
##009
f4b
71c
##a19
e7c
f32
##9d8
0132
##bc4
7ac
bfe
c62
815
e15
bf5
##80f
411
##cf8
##3eb
0077
cf53
811
1101
a15
665
aac
91c
bd2
9a5
402
##bcd
##cc3
f12
1b2
##98c
ab2
3b2
70c
##c67
##bc7
##3e7
725
##00f
##cf7
2dc
##aa7
432
##814
83c
##1fa
##98b
0f2
##b57
##3f4
##bc5
##9d7
ef5
1fe
93c
1f5
##bc9
cd6
d12
c4b
##3e3
60c
eac
c25
##3f8
##9e5
##984
e32
9f5
##3e2
99c
##052
3dc
a32
##98d
e11
832
2fe
1ac
bc2
132
532
cb2
0d00
##50e
3f5
##9d3
1f00
f7c
db2
##98a
9c2
##507
##3e4
e45
bad
20c
##00e
b45
##6fa
4b2
3fe
145
2ad
##057
cfe
4c4a
1dc
87c
245
4ada
e01
1f2
##1f1
d11
a65
9f2
##1f3
9ac
df2
2f06
50e6
2c11
##1f8
e3c
265
dfe
##1f0
##8f4
##9df
cad
ce4c
565
925
##50f
##109
cdc
fdc
c32
dabe
cf2
b0c
0fc
##8f8
d25
##1fb
d32
a45
##8f0
##1d0
##1a9
945
865
7ad
##00b
##817
3333
308
dad
aee8
##1a4
d45
##888
##1da
##1d4
a0c
125
f3fe
edc
##1a8
##1dd
90c
cfc
8dc
ffe8
01e8
##1db
##8fa
a25
##1d7
03fd
30c
##8d4
##8d0
9dc
##8a8
ead
##1f4
c45
aad
8078
dfc
##8f1
##1d3
f65
##1a3
ddc
1fc
225
##6f0
2fc
d0c
##10b
dd60
efc
##1f7
708
f0c
8570
2329
##107
86dd
bdc
##10e
9fc
c0c
1ad
908
574b
d917
008b
3fc
d800
##8a1
bfc
afc
01fe
##8a4
##6f9
0300
##6f1
##8d9
9700
350d
0de9
a08
608
##8da
e0c
##8d8
e9c2
##8a3
##8d3
f048
##0a9
9f35
549f
##8fd
##884
808
##889
##8fb
208
8200
##8db
##6f8
##0a4
ced9
##6f3
##8dd
##6fb
0111
42ce
65ce
408
##8f3
c08
0021
##81a
##813
##819
##818
##6fd
65ad
##8df
##0a5
9c35
41d9
##0a8
##8ab
b08
##81b
8400
0fd9
f08
##8d7
##6f7
##1ab
0fad
654b
##8f7
##887
0f4b
##88b
##8a7
##1a7
d08
##6f4
05dc
6985
##0a1
8ab9
e08
f3ff
69f6
89aa
##0aa
4100
6caf
0303
1e11
##0a3
7f85
324b
##0a6
cd23
1f4b
7ff6
##0d4
##0a2
##0a7
##0ae
##0ab
ad47
57ad
0217
1033
47b2
33d6
b2c9
##0db
c900
c9be
5700
##0d9
##0d3
##0d8
9000
69f4
4543
a4b9
6aac
65e7
0030
5300
4ae7
c9fa
##0d7
9064
9fa4
0035
6a00
004a
4245
4545
4542
96c8
0aad
9601
4648
230a
4641
aa40
3500
f1e3
2800
fd83
4846
2046
5500
4145
429f
659f
bba4
a900
107f
84d9
9c00
d418
0ead
c7d4
007a
7066
0014
0084
0036
100c
75fb
96ef
ec59
007c
efec
fb74
0a42
4883
0a4b
2985
d075
a490
9a00
c27b
8370
8167
5600
3f04
59be
0090
0e4b
0070
69c8
e9c8
e196
70ef
80c9
a442
69e2
974b
66a6
007d
9623
12a4
5796
7fc8
e904
2112
ef69
9100
0078
0528
ecee
0064
ca3a
b8ca
caf2
025c
eea4
ccec
af2b
0378
008e
e104
de50
6eeb
3406
5be9
6285
f650
0079
113c
23e8
a800
fc78
0a4e
6ecf
c8e0
e870
00d4
552d
c208
85b2
2f54
0201
ab00
532d
f62d
de2d
92cf
4b42
3aa4
0062
92eb
e94b
0060
0500
16ad
ac00
8064
1a00
10ce
b41b
8028
0048
9800
005c
5018
0075
ff78
a700
c800
f900
008d
0076
0c69
b908
354b
cd29
0105
0061
a4ce
007e
d169
3506
f309
fe90
c0f3
c298
7f9c
6700
008a
ad00
9491
008c
0054
7bf1
3006
82cf
1b00
f380
0017
0c00
4617
0c60
0074
5000
7ffe
9f46
5f14
699c
8c60
a45f
cc60
4c60
d691
1691
10aa
e664
9691
5691
0baf
a600
f1fe
2400
bb00
1005
e667
e666
10a9
005f
e665
005d
a000
c650
11ef
740a
69c0
e668
0a1a
000f
0a51
7ff4
00eb
0091
0a5a
0073
3f4b
966c
0aa8
0063
976e
0088
a500
1017
10ab
1080
b9b3
ffb8
2700
ff4f
4a7d
e88d
7f4f
288d
a88d
f2a4
0ac1
688d
9db9
3f4f
000c
96d9
7023
0261
025e
0072
bf4f
8b00
0260
0086
6e00
18ac
b36e
de2a
f217
1765
3a20
3a06
10ac
0087
0066
0085
a100
96c9
0092
a400
7991
8f00
9300
0a4f
10a8
0024
006c
5bc2
8c00
0098
9e00
af00
8d00
004c
3439
0a73
4800
ea98
2b92
025d
9400
a200
2c20
2e06
d1f9
8e00
a300
0065
9900
0031
0049
0081
23ae
4b65
10ad
b600
4d00
0071
0a7c
9d00
2900
004b
9f00
ae00
1500
00f7
e89a
e600
8800
9500
6c00
ff80
d9e6
025f
9b00
cd22
4f45
4e00
2283
659b
0082
189c
6551
5104
9b0c
82cb
a8ff
8700
0068
004d
9c82
8600
7780
80f8
96c6
00d1
0026
6d00
006d
004f
0603
10a7
0047
2a00
964b
a40a
6e80
0102
6e73
94ff
40c9
4004
00e3
a41a
0067
2ee5
3100
f1ec
1f14
ecb0
0900
6098
ae9b
6581
519c
415d
9b9a
a14e
4a81
57aa
cb10
9160
636f
737b
050a
17c4
2845
9a1b
67ac
0094
faaa
96c7
ce87
4734
6b41
1006
f0b9
ce8b
005a
c790
5aca
7633
1708
046e
1408
e931
cac2
3905
ef0b
00f6
7f27
0022
1004
0093
2500
f25d
205a
f1e4
45b6
b6e9
8acc
b400
7983
c252
a047
981d
0052
52d6
ac83
af20
cb1d
d656
ed80
fa04
bbdd
a7d1
949d
74ce
6e74
0127
14a0
d298
0d0a
516f
8e84
c291
0983
0121
f5ef
f36c
91fc
c6c8
73e8
6ca7
ce49
9138
10a6
337c
0262
ef74
4af5
3a00
faff
7ce3
006e
0fe2
7f22
56d2
1da8
3191
7de2
497f
0fc6
3011
9d0f
94fa
fb4a
1600
21a0
f500
62ed
dd90
9865
7f7b
010d
2294
9f7f
2df3
fc51
391f
4c9d
7800
e3be
e0b8
298e
0051
38a9
9283
b32d
fc00
dc30
28ba
00fb
58ff
006a
f3a2
a198
b828
e900
84c2
1de4
09fb
b1ce
6f6f
0601
80c7
65c4
b100
1700
3c09
09e0
a0b1
caf1
1aa4
e594
b986
6593
77b3
cea1
0a59
badc
894a
c439
a82a
0069
1565
006b
a9cb
7373
4e59
1a4b
dd4c
8500
7c4e
e477
4e5a
e3bc
a215
adc8
656e
1eff
6f72
9add
036e
7c61
0046
6f6e
65b4
42b4
9dbe
2983
683c
2a68
adc9
2022
48ce
a2d8
010e
696e
6163
f1ed
0097
0015
3cbe
08ce
4600
88ce
2380
01ff
c300
c8ce
0059
797e
001d
223a
00f3
c400
1bd9
a948
b000
4e4f
1aa0
6f6d
0805
5421
3900
cb0a
6800
b200
3000
e750
1039
2300
3106
10a5
3030
5d83
8a4b
42a8
0a40
50d9
2b00
1aa6
b300
5105
1694
6100
00f5
e669
baad
faad
3d00
fa00
2606
0095
1140
7b89
0007
0056
8ad0
1090
f294
e3d4
1699
0053
89dd
0128
3233
c000
0025
e663
6f00
026e
cb00
8fc9
5b00
7700
7c00
3606
0e00
010f
ca83
3700
7aad
821a
b983
c015
3aad
2b06
c200
0058
7880
9850
5007
fcb8
b010
bbde
5097
7500
57ce
b800
8300
0096
50ea
b00a
ce96
be00
00f2
10a4
0700
2935
adbb
2f29
90e4
ec00
3706
3c00
0675
cf1a
b700
3c80
514d
03b8
6365
d854
1092
00d3
0b00
4c00
7b08
b500
5c00
108c
1400
0608
1093
06f5
0055
e352
108d
c61a
ea00
060c
f200
4700
5096
ba00
00ed
6ec6
fb00
6f67
142f
2ba1
011e
3400
1801
8b1c
5200
e8f9
d805
026d
1094
29a1
4142
df6c
0057
10a3
1027
0019
108e
c4ce
c00c
f6f5
1096
108f
5cbe
8a06
3f00
5797
bc0a
18ad
1091
0042
108b
16a4
278e
a1be
109e
1b08
10a2
1095
2a01
e47a
7680
f05c
7d00
0010
2100
a183
96ad
07f0
f05a
10ae
965b
012b
10a0
3230
800a
6a05
d83a
3007
290a
edaf
2c00
0a68
8073
109d
f000
aa05
04ad
109c
42a7
6500
2d00
10a1
109f
1097
3b00
80c8
75be
05b6
109b
1088
2e00
0044
00e2
108a
3261
1300
8c01
88de
ca00
5508
c658
1098
0ab0
b900
3600
2200
7980
e800
1183
6600
d600
deba
f100
7000
0011
7400
f300
109a
4e57
0340
6572
6973
1099
1087
504b
7b00
6b00
6200
e500
5a00
bb85
6f73
5011
1e00
0f00
1d00
c500
5de0
00fe
1089
4f00
6300
7a00
026f
f331
baf3
9055
dc00
ad83
5900
dd00
cf00
37cd
0104
001a
3f8c
4300
d40a
4400
1900
7e00
5e65
2c5a
0667
e100
48ad
5a83
bbdc
5800
5ae2
7990
bb9d
e170
7300
e25e
d400
4900
27ca
2045
48e8
5283
bc00
653f
151c
adc3
f3be
6f40
700c
7200
c600
adfc
1786
7f00
d500
6e7e
00e8
6f66
4444
c011
11ff
2f00
e200
a3c6
7100
eadc
105a
1200
3640
fd00
7fe7
0c0a
3183
0302
4e4b
7900
1086
5d00
c700
d000
ee00
3970
a180
6c69
bbea
0ca9
8100
2936
2555
17d9
6982
327c
584a
b041
5f00
d100
3838
96f6
3010
0640
5a25
e300
05a4
0106
1040
11c0
b583
117c
9067
da00
2600
0018
0301
f600
110a
0029
ce9c
3135
3e00
7058
d300
ed00
74dd
11e6
000b
df00
57d1
61fd
4443
3133
c100
42a4
b940
8f83
0cc9
0c2b
cc00
6f77
cd11
b680
3232
424d
69cf
ef00
11ee
6c65
9fb4
112c
003c
9897
e400
73b6
a90b
27d1
113d
49d6
69a1
cd00
af27
f800
42a9
d200
8f80
bf00
bd00
cb98
4546
50a9
2383
009a
7632
1486
7e1e
0440
d900
859b
0363
0009
73b8
100f
af2a
5084
97a9
afe1
f97f
c651
567f
d700
f700
2ab5
1144
0802
6d65
6663
6930
e3af
7fa1
0125
8ad1
e700
1180
14e9
3032
08b2
b9e0
7a78
0840
fd49
636c
802a
676c
3240
b783
026c
0099
6533
9d28
9939
1102
0d01
7fc6
11f6
b040
965a
63fd
7280
7fa4
6573
b319
0542
0043
e9ee
0483
508f
e2be
6e2d
5103
7370
96d1
011a
1840
5b40
1135
5080
cf40
6963
acd7
d680
4442
03c6
2806
b064
003e
1806
370b
3235
1003
00a9
313a
3266
fd26
dfbb
4ac8
7383
fff3
3730
00a1
6f78
3f01
11ad
ce40
676f
8180
89c4
a1c6
0683
5789
6903
052e
7080
2d76
1145
7374
4644
e089
6d40
0886
0114
8080
2840
f6cc
205b
0140
1193
d640
0267
a640
1805
114c
50df
16f6
01ea
1aa1
11ab
0013
11fa
6503
5040
3438
114d
a740
3137
7665
509f
6172
bb24
11e7
a040
2675
11e3
0863
8980
038f
7334
ae1f
6140
009d
1125
5971
1147
1143
3332
16a1
1103
f840
1340
1141
1108
11dc
4240
4a50
11f3
49e8
43d0
0240
616d
6940
100a
51df
bb40
0129
4b40
4244
2940
1148
3440
119d
114b
11ea
009e
0124
6e61
7a83
1190
8fca
10ff
11e2
3740
4740
4e40
c740
3a66
114a
113f
4845
11dd
1149
a940
797f
11ec
7671
0038
6ffc
009b
3b03
1142
0126
4645
1146
1b83
11e8
b840
5d40
3733
454e
23a4
010a
11d5
55ff
8f40
993c
507e
110b
4a40
8581
f940
11e4
11fd
1f43
4540
11fb
1085
1139
7b6e
9b40
7b86
1109
9605
1110
bd3b
4140
1105
6040
1106
11ed
11db
d740
e940
117e
11fe
11d9
8a83
f040
11fc
9803
df40
8029
5a40
4e44
11f2
11eb
1107
e840
8a18
649d
6440
11f7
11e5
a683
6e40
5c40
5240
110c
7640
8140
3938
6f80
0f07
6840
044a
0690
9790
6240
110d
060d
cbd9
7158
0039
4640
1e40
0540
5e40
d493
10af
5f40
11d2
49f0
2040
1025
706a
c640
11de
7989
113e
11e9
ea83
11f5
ec40
0670
11f9
c031
3283
db40
7840
0270
c040
11d6
6540
11f4
009c
0f40
1194
6640
ed40
15c0
11f0
6740
17eb
5bcc
1f40
8879
1104
ff40
3761
113b
2340
1150
de40
6340
11f8
110f
11d4
da40
a840
8b40
fb40
5472
2b19
4ae8
5740
7e40
0383
fc40
5043
0d40
5ae0
28f4
7b40
50e9
4f40
6a40
dc40
3adb
1803
af83
6f35
112d
00a0
7340
0680
e240
7f40
3330
114e
7240
f140
1130
e276
e140
4440
ee40
8c40
7d40
c183
2c21
fe40
6783
1b86
8440
11da
4040
7a0a
1151
8240
11f1
1b40
4d40
5140
11d7
4ee8
110e
d240
1d40
11d8
7040
5340
2d40
3a40
fffa
fd40
653e
0041
dce6
000d
2240
ea40
4940
4be8
3d40
1137
9040
ae40
9640
5940
5440
7540
7740
11e1
6e83
0e40
7a88
1133
bd83
7140
11d3
1440
5183
6c40
00fd
5840
11a6
7940
ae83
8e40
6b40
a565
0db9
0940
0a88
8640
1138
7cff
d040
252b
0740
b240
1603
f540
eb40
c140
0229
b740
1740
3040
11df
9340
8040
3231
4c40
e895
4340
e540
1111
2031
0c40
165b
3e40
7a40
2140
1940
2b08
b640
dd40
fa40
f340
113a
9240
d8ef
0b40
5701
1c40
0461
8940
001f
1a40
a883
04d8
c840
6d83
5a0a
ef8a
1195
c540
d0be
7c40
d140
9840
9440
5540
3840
7440
1167
4840
117f
f240
11a8
6231
b540
f740
3537
3540
002a
2740
c940
11e0
a140
ca40
d340
2440
3080
2e40
6904
d840
f640
4550
112e
7480
8340
2f40
be40
d940
8740
3530
5403
112b
1240
8d40
9d83
c340
8540
af40
8840
e040
ef40
1126
cc40
4ce8
3c40
11a4
3140
b140
bc40
11ac
7c83
c240
b440
c2a5
7422
9540
0480
2540
50e8
1d83
57cf
9140
5970
6965
a540
2c40
2a40
11d1
9c40
2d83
f4e2
83be
6b83
1540
1640
11cf
c440
7d39
9d40
3d83
9e40
2080
5640
9990
ac40
119a
1128
3940
a240
a440
3b40
9740
2b40
e440
8a40
105f
1198
9a40
e740
f07c
cd40
9940
dc90
1134
cb40
3f40
2640
e340
1196
a340
f440
55fd
1168
ab40
caf4
706c
3340
1199
d540
1136
4de8
1119
7997
3ebe
8c80
1132
ad40
1124
ee83
bd40
d440
b340
1131
d803
7d83
5b83
011d
bf40
9690
11a7
0202
2d61
9f40
1112
11a0
1118
6f83
0406
7986
f090
ba40
e640
2b83
1166
11d0
112f
0f01
00f8
fc49
1192
5583
f86f
111a
01c0
115d
1197
7992
3483
11aa
11a5
6901
7994
114f
50e3
112a
0a83
c080
1114
3783
11a9
7461
6f63
5c93
7982
119e
55fc
051a
c479
08e9
119f
0180
ce01
b501
4878
11a3
1123
1129
6f79
7065
00f1
5ba6
862a
111d
0373
8717
39f8
86fa
11b9
1115
d9ce
115b
7783
3431
105b
288f
0283
9a90
7988
119c
7ed7
119b
1120
6683
1121
dd83
5b95
445c
6f6c
187f
11a2
003d
55fe
ba83
11a1
1117
6883
1113
1783
111c
6674
1122
f783
1161
002b
0583
117a
1160
7a56
6f38
16be
030a
5bc7
111b
0b90
f58b
0214
11cd
80ba
11ce
f583
1177
31e0
37a4
11b5
eb28
115e
312e
11b8
1cf6
6383
a47a
118b
4383
5616
111f
1191
5070
03e1
798c
3a73
6f64
0901
0266
1127
1d69
0376
6233
11cc
578b
8416
115f
11b6
9783
e896
4a83
4980
0c83
117d
4880
e914
1116
1176
d783
3433
4a7a
a383
00e5
7580
06ad
3a83
6465
009f
0115
4083
1156
1172
116e
e4ca
0109
1037
10b0
11b2
1031
115a
111e
d46c
11ba
993a
3132
11af
db83
320a
b81d
cce8
c383
1188
4249
1173
b201
7b80
1162
4b83
116c
1187
d773
1906
c3a9
1159
6083
fffe
11b0
00b6
11b7
c290
3766
3139
11c1
116d
1163
a4b3
a1c5
3634
56d1
118e
0223
6e64
7a80
4344
7183
6483
06d7
6183
6179
e383
d483
3234
5880
116a
115c
646f
1157
11bb
edf5
0332
2a83
6c83
7343
2f31
1158
9590
cb83
5365
1164
6d61
118d
1182
11b1
0a09
1170
11ae
9b90
7b83
a40c
b080
1f15
1169
c083
1179
502f
1175
7b03
ea54
1483
11b4
118c
3239
1181
3735
5b31
fc83
1083
a583
1184
00a8
4646
8383
6134
3430
1186
1155
11b3
1346
3e0a
6983
6f6b
0659
3983
6f01
3eea
f183
3130
1174
1185
0880
1152
6472
19cd
f010
1171
6469
00c0
b2bf
116b
a080
16a9
4f80
1153
06df
118a
1165
065d
0490
e898
1154
8e85
496d
7583
6f74
8183
0331
5c10
1601
80ad
1178
1189
73b2
d47a
4e83
116f
9183
00a2
55fb
f382
ef1f
1383
0e83
bbd1
b283
e897
bbd4
50b2
1602
0183
118f
5f83
6d42
1e80
5383
3238
1e83
d802
6f0a
b35b
11c5
3383
6283
11c3
9080
df90
de90
42a3
f080
d383
2680
1015
072d
0103
7e7e
736f
3339
0816
e3ff
24af
4f44
6672
7473
662b
a283
7985
117b
11c8
8b83
82c4
ce83
f883
a880
bc83
e080
e283
1a01
6f22
e783
696f
0cd8
4783
24b0
e899
0271
1a83
fe83
ff11
5066
7683
eb83
4f52
11bd
4483
798a
10b1
be83
1880
7883
1583
da83
5e83
b183
e92b
11c6
11bf
7552
1605
b383
1c83
ff83
5983
0277
1780
0696
11c2
11be
6080
9083
d183
cf83
c483
5883
3c57
f983
f455
7483
3583
437c
2183
4d83
9883
4fe8
6f18
f6cd
6f10
6478
626c
d080
8376
5c83
11c7
5450
312c
11bc
4643
a083
b883
7266
4e80
6561
6e7d
4854
f980
4d39
0276
11ca
6262
5244
fb83
6dd7
11cb
0d83
b25b
8e83
636e
0b83
e483
b083
4583
0470
7083
2083
8583
11c4
9383
1f86
9c90
574f
7e83
0614
060b
798d
5483
5868
8483
db90
b483
2363
2f83
70e6
6777
8083
e683
8983
2483
bf83
3180
9980
32c0
47e8
8d83
e983
9c83
88e7
4283
7773
a483
0783
2883
bb83
0278
11c9
9983
d983
24b3
0883
a983
8883
8283
703a
f483
4983
c583
7c80
3083
e183
3131
f383
9e83
3f83
a783
a487
ab83
d683
e883
3031
7996
6f08
7993
ed83
6369
4b70
4683
0a37
9483
3e83
6132
9490
f083
6a83
4f83
6e48
dc83
5b53
1f83
00b1
3b83
7283
1983
7347
9583
2583
8783
f402
06e8
6980
4a9a
9f83
1883
0aaf
786f
5006
9880
c683
e583
9b01
e083
ec83
2783
722d
4c83
c783
3683
00ad
ef83
f683
d083
8780
bb61
2c83
fa35
7995
9b83
aa83
745f
cb80
cc83
60b5
1283
b683
d880
1683
7d80
06ea
3469
798f
2abe
3883
e090
1802
4265
2908
6c61
520a
cb81
3435
10b2
eeb3
c983
2e83
9dad
6b80
fa83
3c83
d583
0602
1022
798e
3280
001b
d883
6eaa
c283
f880
df83
0990
a9c0
95be
1a56
6f7e
a046
1007
d283
5ce8
de83
c883
302c
5151
9a83
8c83
8683
7475
4144
4441
6f50
00b4
cd83
8001
2683
0268
7270
7b01
7380
5a8c
0e01
083c
51e8
4de9
74dc
310d
06b9
2b51
7276
746e
0790
0222
fb14
7069
6680
726f
6dc0
3434
3288
7204
4686
18af
3623
00a3
7f80
061a
3a7a
c590
80e4
c690
2e31
0a3c
6461
db80
2c31
6464
6380
6239
2180
00e6
5769
9d90
3906
021a
3880
4376
6f76
3236
6765
0272
0605
d804
9480
630a
7ae9
5264
04fd
8880
7f7e
6d80
2032
6546
0a4c
3337
7c89
084d
53a8
00a5
6f75
6f32
4446
00a4
0ac0
e3e0
cdbe
4875
6337
ca90
fa92
9a42
34c0
da90
7987
695c
2880
00bc
4a89
24f4
0559
06cf
798b
89de
e290
c743
6f2b
6f71
8742
5351
5b80
8201
6f70
ff90
0980
34ea
6f02
0674
35be
7169
4cfd
1c8a
6175
5252
0279
c890
e89b
f6f6
026a
6f7f
7981
3930
d3a8
04a0
5b29
cc80
b0a9
50e7
77e9
00b2
5774
056a
1480
06b0
3384
6f4d
2b4d
049d
34a0
06b1
75e6
4745
6661
6a52
3480
1932
e2e9
6589
9368
7d1e
314b
0149
29b9
30d4
476f
6f61
e190
6f7a
db88
0203
6f62
bf90
4da1
0160
6e93
d750
068d
9f80
064f
e280
bce6
5273
8c75
9e90
3535
d204
6b53
69ef
c529
020a
39ee
84f4
ac80
0af2
063c
50cb
7e0a
352e
5c44
fd85
fae2
06e9
dd01
e676
01fc
385d
3262
0660
6165
06d8
0269
323a
06d0
bb0c
06b4
0305
7129
e89c
734c
50a8
ed0b
415c
6537
6f5d
6501
3001
5352
796e
e790
7984
7608
6f5f
d405
9390
1013
06b5
01d6
c880
a8e8
10b3
c390
92c0
3097
c990
f3ad
cb90
e780
616c
ec80
06b2
8fce
5b28
4345
08ea
0825
00b8
069d
f680
5980
6f47
6361
c376
6e53
0273
7e80
0691
3680
8741
53ec
306b
647e
06e3
dc80
6176
4652
7b68
7180
5973
ab80
5131
9380
00a6
4080
b81f
ee09
e880
6f65
4358
0da0
06b3
ad98
3033
1a90
06bb
0290
6f4c
6562
0275
7cdd
0280
d380
06ac
6f4e
0190
045f
0c7c
ccbe
e253
6480
4580
4445
0673
b2cb
06ee
06af
13a8
06a5
6f4f
5046
6368
3837
ea53
215f
6949
25ec
55a8
755a
ff3a
979d
7369
0698
7fcf
3237
dd20
53c3
06c6
7737
3570
5a4a
0697
d3db
100e
06ff
e622
7c8a
5a0b
6f44
6f45
d480
d484
3654
1474
00d0
3935
2510
385a
06ba
e980
5d80
2202
57e2
00ab
6859
6f4b
cb5b
9367
756a
bbd5
6b6e
cbcc
15f3
5780
00cc
eabb
06aa
6f60
7132
b980
173d
e3e6
00b0
3980
bc62
514e
4480
06b6
6f7d
e390
d990
62fd
6f42
7c36
7332
7331
d427
6f48
5467
6f5a
064c
ecf6
00c8
f403
3630
a938
6adb
0a9a
00b9
3054
5065
0624
06db
fd90
0609
0688
9308
3a80
6880
21b0
d851
706f
06f4
d980
06a1
2006
5c80
9680
06dd
06e0
06a8
22b6
3ad2
00ac
2909
fd6e
b280
e680
6f2d
2e30
06ec
0249
6f56
06d6
5e2d
00ec
a3c5
0650
4b80
2159
d46a
6f69
6f68
0380
7ce7
06fc
a88e
2f80
0769
641b
6f51
06f8
93a8
817c
4973
3731
6f57
06ae
4280
6873
0450
00dc
0db0
7465
c4ac
6f3c
6f5b
8480
69e7
6f55
6f58
eb80
6f46
7070
1eba
31ed
4f70
0252
4e4d
2e80
6f59
5471
6ef0
06a0
d280
69c6
7274
5f7c
6874
6f49
0692
6f52
4c80
b0d2
370a
06d9
cc90
6f6a
bec9
7273
d6e9
986a
dab2
c490
b880
31a3
06ab
d180
3138
6f4a
0699
10e2
5bca
068f
6f54
be80
06da
1c80
069f
4a80
ca9a
b2c0
06ce
2980
8a9a
06f3
7333
dfd1
06f9
06fa
3c2f
6f5c
06dc
6f03
065a
06b8
06a3
7879
068e
06de
068c
f02d
0161
09f4
0bec
0a80
f028
7c57
f9a1
b305
0630
322c
06f2
069a
1aa5
f693
6f53
0dad
d790
f390
9180
00c3
fb80
4c57
9cc7
5311
4fcb
a552
a131
a894
06ed
db64
01b8
5001
6f33
0274
4876
0638
2134
ae80
6f2a
e9b0
00f0
5b90
06a2
0694
6f5e
5d7d
7562
1024
06e6
9e80
6f3d
5454
065b
4309
6f14
9ddb
322d
f180
016c
065e
c980
5480
00b5
06eb
5509
1380
003b
7090
06b7
6f34
bb2e
6f29
06f7
8821
06fe
42bb
06f0
4f43
0695
94b9
061d
2b80
733d
020c
6f1d
069e
00a7
06cb
050c
0463
fc90
2888
6f43
2506
069b
b92b
5759
200a
f612
3336
e890
6f3b
a901
0693
6e22
7fff
2e63
5fd8
222c
78a0
47c7
070a
8e80
062e
81c8
7b07
1553
5caf
2d20
6f7c
065f
d3de
024a
8de3
dbee
d890
3eb1
06e2
0606
06a9
6f41
d1ec
4a0b
06e1
06f6
e490
1049
e90b
0648
7e9a
16d4
d291
06fd
24b9
0642
c680
056b
d43e
06f1
2480
4bcf
1980
6f0d
011c
be96
2164
3215
f405
18ff
0607
8743
c347
1041
9780
06a4
0da2
4d30
663b
f8d1
6f7b
0b80
4a12
e894
04a1
062f
06fb
3420
0654
5180
4005
6f2c
5b2a
6522
01be
06c0
1f90
0655
7a50
0681
22bc
10b4
3d80
0512
6f09
06d1
fc80
dd02
1084
2a70
6f1e
06a7
ea75
aa34
d6a5
06d5
f66d
88e5
7f82
f0ea
80c0
5b27
31d6
fcfc
066b
06ef
ce80
3a75
255b
00e9
061e
3202
0e80
b639
b95e
305a
5808
1680
6421
8258
5733
0405
0c01
a950
069c
3331
cd90
0e0a
5f69
b780
33c0
3832
5176
00dd
2808
0961
0445
dc01
fb90
0501
e976
0631
dbe1
f201
5be8
fd36
6f1c
8380
0686
00d5
3034
6269
3943
0639
6f23
5e80
0120
d590
2280
b1cb
00aa
6308
c0fe
06bc
6f37
cf4f
0701
fa90
f280
cf80
1b80
0a05
064a
3190
7b67
8531
0685
486f
49c5
7ee5
7877
7469
06e4
066e
063a
1616
6280
7730
a680
97cb
064d
652d
6f2f
066c
afae
dd2e
3465
bf80
06e7
514c
c513
6f07
7cb2
066d
46e8
7878
0580
3468
e590
06a6
2778
bbc1
6180
6f30
58f8
0811
3432
6f3a
12b6
2038
06cc
6e3a
00af
686f
cb59
067d
00bd
43d3
062d
0d80
6f28
0590
064e
0401
065c
220a
0679
00be
00ba
0684
9a3e
1817
0657
6865
6f0b
6f16
6f2e
6f21
e548
6f06
f730
ad80
6f1a
5a0c
756e
8a04
6f17
9f90
00ee
0656
e2a8
100d
00ae
067f
3188
31c0
e690
49e9
aff0
0390
2508
9501
0672
0633
6f3f
06e5
3b8d
5f4d
c580
066f
a5a8
807e
db4b
8680
0632
01e6
e55f
f780
5415
ed90
062c
3203
1d80
012a
e2a4
6f31
16ff
7669
4f57
3134
3736
6f05
8d84
6902
d46b
0649
ea80
712c
52e8
00c4
d8ee
0644
3334
6f13
0626
0636
0669
00e7
6d90
00b3
bb80
3294
ac02
7b22
062b
fe11
0661
2780
3037
064b
7ed6
2cbe
6f20
6f0f
0676
0625
06bd
06d3
436f
066a
adb9
9e57
f302
6f1b
6f0c
cd80
0aac
6f04
e93c
e89d
f590
4780
5a52
f190
06c5
6c80
00c1
6f3e
6e65
3290
5b0a
0689
a780
ef90
0664
8a08
06cd
0671
0646
0c9e
c88d
0658
bec8
ff18
646c
00e0
0496
063d
a580
2c80
3531
b9e8
0166
fc64
6d50
3c0a
00c5
0402
1580
00cd
3f80
ad71
6238
5248
506f
c380
a090
3737
e52b
315c
e480
0682
6f19
0687
6f15
2222
6021
1036
d494
10eb
2e0a
0663
dd80
0502
6f0e
1c31
f580
ff44
201c
7c3a
6f24
8280
9c17
6f12
ee80
0634
9b80
cead
e8a0
6174
8725
6a80
0610
f029
96a2
7336
0635
f290
063b
2063
7264
0629
046a
64b6
068b
5420
7162
057e
bc80
7875
5a80
6e56
70ac
0408
0662
3380
00e4
068a
8b80
6d51
4e45
9d80
6580
06be
0250
ec90
d690
ba80
7876
4759
c050
06bf
067c
6964
240a
327e
06ca
00e1
1a80
0130
0118
f667
3539
6473
06c7
013c
63a2
dd39
16df
5b01
a989
6952
6f90
0e15
06d4
18ae
574a
a001
ef0a
9f6e
3831
0473
3436
8101
2901
e990
8f14
00fa
2048
af80
0627
484a
0474
202a
9abe
047d
0801
4252
6f27
b480
015e
9280
644b
6563
7a01
d9a3
7fef
6639
a980
260a
045d
5026
5121
1280
6f1f
29e0
5380
6f25
0137
067e
06c1
c363
9abf
6971
a4d8
ee90
454a
d50c
b288
1c77
00b7
7630
291f
24b1
00c2
0652
b9d4
616e
6261
f890
d780
0d9f
0622
a480
6f26
5045
28e8
6432
06c9
322e
6343
10b5
0621
0643
7288
0641
0668
00ca
06c2
303a
06c3
00c7
67a1
7a36
060e
b180
5090
ac7d
0613
eb90
06d2
80c5
0677
062a
0665
5002
a190
f990
06c8
0da9
4d80
3732
6961
d580
5345
3580
3038
ef22
c190
4b62
345d
3020
4680
0122
7365
3653
0780
1604
0637
7622
00c9
2276
55e9
3932
0628
0138
0251
4148
0615
2264
b730
d523
fea7
045b
0653
6402
ea90
ffc3
6137
7601
5346
2d80
5058
5258
0651
c480
027a
512b
067a
3201
1f80
00de
3247
c280
34b5
bd0a
b580
f501
5680
497d
3532
00bf
f790
2268
0460
d4c1
00c6
3250
9290
2207
e058
4e69
a4e9
060f
500a
f690
0475
2270
f480
7dd6
363f
00bb
6780
3839
b394
0dac
6131
040a
3335
342c
d290
7075
d6c8
0204
5f80
f490
048c
0678
270a
0428
00ea
3b80
5a10
5b1d
063f
226e
0404
6e67
a48e
6250
013d
8e14
2f57
fa80
4a47
0645
0b2a
e601
b4ab
596e
4a0a
0a90
89dc
3d22
04b9
7af1
061c
0136
0611
7322
50fe
654c
ef80
0482
048d
d1ea
0666
3254
d14a
f0b7
6e7f
4018
4d53
c780
0a24
4c45
0617
9c80
00d9
434e
d1eb
bb0a
2035
4180
80c6
a280
e580
5751
4871
4058
7ed8
5bc3
0623
4064
0620
da80
ce90
0a03
c214
5647
7301
06c4
3e80
2a8a
919d
0494
0472
0d96
3834
0479
6138
43a1
0619
d649
2393
046d
0434
7657
047c
938f
3663
08ac
067b
f288
2301
049c
e893
919a
4346
4e0a
0464
061b
5d86
28a9
c4d7
3246
74cf
0618
325d
b677
046b
514f
3214
80d1
5280
2d63
4b49
550a
b380
1b0a
3263
aa2d
04b5
40e9
2a20
d7a9
5dff
10dc
0484
8e90
00d8
4a45
0462
a608
5a53
4a02
2e32
524a
aa80
0890
caf5
4665
d3dd
4547
3738
5765
5859
00ef
3259
c090
360a
d010
4254
063e
8a80
0146
e90a
061f
9910
00f4
046f
0234
197f
ca80
5014
96b8
044e
634e
5a0d
0d9e
2828
6c75
348e
3136
3062
2d50
dc99
049f
4f2c
743a
6d0a
58cd
db81
0476
0616
46bc
667a
f9b8
0c80
f558
076c
6241
3665
587a
80c2
7998
3039
1e89
0481
324e
b47c
7ffc
00cf
5a09
00db
7096
3437
7071
6531
d390
b2f0
e801
e65d
6364
0488
3780
216b
70a3
50ff
f5b3
012c
300d
f31b
4449
3036
284c
fc50
2d62
6d6d
2a80
1e84
0dbf
7164
6cc0
6e70
6872
0447
70ad
50ad
a123
6c6f
582d
398e
d490
5059
027e
e979
aa0a
32fb
0471
cf90
f0a4
2a4b
53e8
3003
0dc2
8f90
046c
511c
d858
f04e
6875
1cac
3a0a
047f
d090
7d85
3836
049e
8d80
5301
570a
5b5b
00f9
5936
00da
3253
e380
48f0
6574
3204
4a3a
3939
0dbd
052f
010b
a105
0da7
4250
7cf1
4664
8ee5
1e90
6263
0da1
760a
0465
513f
3901
5a11
6e1b
3018
326b
507f
6370
0db1
77be
4420
6e6f
00ce
32ad
4201
5354
6dad
0444
8e99
3220
024e
59ec
3265
5b02
670d
0468
9a80
044d
3a57
f1ff
fd80
b8b4
998e
afad
0486
5580
7a89
6821
340a
600a
0452
70a5
0dc3
872a
0f80
a018
4479
045c
50f0
3937
327a
048a
048b
3264
4f54
a90a
8510
3284
047a
3272
6c06
0f0a
0107
5b50
7ed4
702d
919c
0b2b
0455
89d9
9938
2580
6d6a
09e8
43af
045e
d190
de80
0da8
919b
0493
048f
4380
5064
8859
416c
2158
27c3
047e
d495
33d7
0442
0439
5bcf
2750
8580
1525
e9ad
8602
00d6
03f7
2beb
67f0
017a
eb87
0dc1
16b3
e89e
1014
af15
0478
0612
0448
0257
01bf
3223
2844
c201
a6e9
08e6
0133
0c90
766f
0dba
3a31
6d2f
bd80
a805
443e
05ad
00cb
327d
0db8
c1b4
a6f5
ff0b
d743
c10c
0da4
00d2
6d6c
0db2
3205
280a
3533
0dae
c180
6d46
ee06
10b6
8f63
620a
3536
afa0
0a3b
6b62
0456
021e
2090
0db3
0489
7d89
0451
3739
3361
3635
fcbf
beb8
d95a
6d36
3229
01a7
0491
919e
01e3
0466
8d0a
0469
372c
048e
5d0a
0113
0497
3279
e180
0d90
0965
7b90
0da3
6502
049a
5992
6c44
1ef1
e0f3
58e8
0db5
8404
324d
0543
326d
7570
127f
6437
3e01
3285
7eb3
a4d1
5290
34a8
88ec
454f
6d2e
0443
9001
0485
1009
6155
2b7a
5a0e
ef02
7777
42bc
0dc0
045a
70e9
5a01
7248
6173
7ffb
1d14
320d
0da5
0dbc
18e3
047b
df80
0fdf
0daa
0db6
0467
cd27
5d2c
3561
0da6
0db4
7ffd
0dab
0495
0dc7
6da7
0dc8
043d
4544
04a3
32c8
744f
9618
0db7
0498
e028
32eb
0dbb
3101
3743
5427
6d74
640a
0499
7d01
0492
3638
b4af
a2d0
a011
6dc1
3207
32d7
7098
5150
01e7
3490
0454
6662
6ea3
086a
0441
0dbe
0f90
0dc9
60ad
0459
049b
0dc4
6f81
5acb
9294
327b
4d2d
4b0a
6335
b65d
cb88
6d58
4d90
32f2
73ea
9190
00df
6d5b
3222
7931
321d
0daf
45e8
3639
5ac3
0453
043c
0449
6fad
0487
fc6e
ee0a
e65e
46d2
321a
bbe6
044f
0458
1a95
3ad0
7b60
3268
5a12
487f
793a
506e
656d
e9a1
0dc6
1a91
5a90
3631
0dc5
3429
326c
320c
6564
1d01
c750
8a07
2370
9580
70a1
7261
0435
1038
3625
16b5
e3f9
01d1
26e9
0457
16b2
1035
4e2d
6565
072b
be90
3835
bb25
3863
0112
6232
5048
6290
245b
3165
0123
dd29
146b
38a8
5f7d
2d53
3255
bf4a
6dce
1dba
5cb6
f5e6
3934
324f
6d91
3267
f0ad
80c4
5bcb
56e8
e8ad
b0aa
61ad
62ad
4302
da72
5a0f
1e14
e65f
8c5d
ceb0
2def
044c
4243
3270
942a
3951
dd0b
796f
223e
7079
a590
fc0a
7363
d74a
0e90
00d7
ff0a
79f1
89da
3208
03fe
f1a1
db0a
6e6e
3271
3402
7534
507c
e041
3221
dd1d
044b
3590
9090
63ad
1e0a
6dd6
3276
160a
323d
5a5b
3633
6d69
f2ad
0177
7306
e65c
993d
3244
3213
c40a
0355
4152
bbf0
0191
610a
dcf0
6011
1a94
326a
3269
a290
6101
7364
e459
3219
f1d1
4654
59f9
321c
3081
4843
64ce
10dd
9842
3273
8f15
6dde
300a
bb4d
5604
350a
043e
69f0
4290
0119
6da6
0418
16b4
f93d
80cc
5175
04a2
8f0a
0431
70a4
59f8
440a
03f6
7701
f6ce
a101
a380
7dd7
10b7
232d
bbac
5a54
e40a
6d4f
f9ad
726e
8f01
7402
324a
5243
39cb
3538
9821
d1e9
6167
cf50
3248
530a
6ef1
3228
dcf3
3242
6265
0a43
0188
80ca
76f1
8790
c6d2
37d1
2053
f05d
670a
5051
9e3b
6b0a
50e5
4ac7
7ee9
b2ad
04a4
6d47
6d30
5041
090a
f075
5b52
38ba
5bd6
3164
32d6
f60a
ceab
f055
2928
3865
fe0a
f001
09f2
140a
4f63
6353
3256
3251
3277
6d73
5b49
4d0a
a4c1
3d45
473d
6390
5bad
2a0a
1790
324c
3278
6d37
908e
430a
0430
89db
ba0a
322f
2d2d
6d4d
bd90
04a5
506d
043f
042c
3450
e0ad
3363
c112
a19a
fcf6
326e
3274
af29
7889
34e3
5a08
7b66
326f
763b
91ec
f254
9cc6
33ff
043a
b20a
4590
dcf2
3282
5b91
120a
3463
3275
ff01
64ef
f557
6769
bbd9
0254
7f90
5d90
420a
1a93
ceb2
6d62
bb9a
329d
d70a
fcc0
043b
7d0a
3d39
7006
6ee9
168c
3145
e65b
322b
10c3
750a
94ad
0189
3225
3090
325c
5c90
e93d
32c6
1a92
2590
0f63
1d0a
653a
4348
3008
65e8
02f6
990a
3211
01ef
9617
0446
75ff
0529
3216
0865
ceac
eeb4
323f
3d08
dc0a
4c90
59b5
0429
0438
322a
3209
1545
6d01
e60a
4945
026b
3936
087f
77f1
321f
7472
2050
3227
2a02
4001
6d4e
3461
1490
6e75
4e54
301c
04fa
0436
28cb
5050
8b0a
0902
709d
3961
3364
07fb
6d6f
4541
4fad
3362
7495
180a
32a2
1290
46c0
352c
50b5
4099
3226
5049
3224
343a
3241
32de
4c41
7b0a
aeb1
0828
6555
700a
6da3
5e0a
9528
3260
6ced
d46d
1a0a
6aff
a7e7
0155
01f8
6730
54e8
5061
b55b
0a9e
81c9
a9fb
0a4d
0b01
dcf4
eaad
c759
0f14
1e6b
6ca6
1c09
f510
4d45
ceb1
34d1
c111
721a
ca0a
2d39
cacb
730a
3257
5fcb
0367
325e
04b0
813c
34a9
6970
ceb4
2588
34ad
017d
4553
32ea
6374
150a
8808
ff74
5b09
eb97
4242
505e
0c07
32e6
32fa
fced
5390
ceb3
c8ea
5e49
b22d
3243
0433
e8e5
5004
4e3a
d450
325a
02b8
5203
ec51
e935
01f4
7572
7f3b
321e
fcfd
90d1
9864
8e0a
9f0a
bba6
507d
3258
e5e6
81fc
b2a9
0116
327f
3047
2d90
3217
59b8
32e2
32b9
7179
1e65
680a
96d8
ceae
a214
900a
e30a
f36d
3245
f304
5166
7477
986c
6d75
6fe9
6876
1e85
d8e0
dcbe
6d5d
6f9d
3a69
5b99
b202
7c30
6490
647f
fe01
0235
325b
50e1
69ad
bc90
6a4a
3db9
395a
a890
78ad
34f3
01a3
0a69
6c0a
1c7c
4362
7f23
5291
ce50
5b70
708f
f1fd
323e
328d
98fb
6dc7
042d
3d90
e8dc
6539
3df3
102b
6431
1011
9eb2
4b90
e370
7b61
ca11
09fa
32f3
59b6
023d
797d
2890
cac3
6c51
0fe6
709c
3249
3a39
6fc5
4b64
3252
70c9
732d
950a
7470
0d3b
6702
6e90
da0a
42be
4735
d30a
2390
fcc1
a00a
02ad
78f1
3210
504d
89df
7dcf
5302
f203
64b8
c124
04b4
5201
6e50
d749
34e6
b30a
d65f
9f9d
6832
36d1
32c7
9841
706e
1f84
e89f
a390
5917
3845
58e0
4a90
4e46
6d48
505c
79e9
6592
c288
7690
9c02
325f
ceaf
ecff
7450
340d
3212
a690
b7d1
6a0a
fce6
6dcf
1804
dc31
a80a
622b
74c7
170a
72e9
e3ad
bb90
3890
320b
285c
32ff
e20a
cf63
320e
709e
04b1
eaff
4c46
2a2a
89e0
65ef
9fdc
3f8d
5210
6178
7c0a
770a
fcff
80cb
5c07
88ea
320f
ed01
2865
6ee7
4090
f50a
6cae
bb05
b05a
7c55
965c
502d
055d
3828
80c3
89d8
e930
0151
5bec
5189
e9da
820a
709b
6264
9efd
4d61
2169
0521
5e90
3b06
0d0f
503d
8e15
f3a5
330a
0a48
42d6
329a
7265
7611
6d49
a10a
470a
0170
6d7a
dcf5
fadb
8090
b9cb
5dcb
c659
022d
4a1b
a20a
7290
5ac2
4558
3462
024f
0437
ed0a
282e
4820
59e8
7093
ad90
77ba
497e
4259
3d02
298f
e7a9
32ec
23d7
f1fa
660a
bbbd
e4e6
7097
3958
0432
920a
50ec
3830
cfd8
5908
6d79
3534
f5ee
780a
f3ab
2302
096e
b8ad
713d
4101
6d31
a60a
a639
3d0a
65c5
328c
3632
5025
4e33
416f
ea03
2e01
a528
3833
6455
01ad
321b
a32d
7c4c
2d0a
6d82
eeb5
2001
b6e8
c00a
8a0a
dced
22f4
5b5a
b90a
3417
6eb3
5715
21b1
94c2
726b
c25b
79ad
02b6
3155
6466
3350
59b7
6556
7d90
7890
50ee
355b
3292
70a2
210a
782d
506c
6d70
4d50
5f0a
4afc
3005
4790
03f5
4e34
01e9
af21
e0b9
50f5
2d06
6190
fc4f
6372
6fdd
f1f9
7ff8
18fa
0220
5215
2905
4b01
310a
3293
450a
50c8
7602
2dfa
44e8
6135
28ad
6170
01cc
4bc6
50d1
a04e
7e89
810a
1c01
6dbf
840a
e8a1
4d41
1de5
81ad
b570
2d75
1ded
f3ac
dc39
eae0
8e75
14f4
9267
1d90
fcf5
32d1
8c90
2df2
394a
89e3
4450
f40a
3218
bbb2
6db6
2b0a
59e0
fe64
590a
6dae
6333
80f2
650d
10b8
cb01
7091
0403
50b4
2439
222d
03e6
344a
ce0a
7ca7
6d5f
2360
32c2
5a30
b901
082d
1e74
db1d
6d76
32d8
e8d1
e8c1
790a
7789
2190
8865
6d63
14b9
6da2
4976
5a70
023a
68ea
323b
21b9
89cd
880a
3790
6632
4749
a790
040d
f006
5130
9401
560a
6601
250a
6090
32fe
86dc
656c
7f1e
55e8
88fc
14c2
0150
0377
32cc
17c0
afb1
50f9
c3a8
7201
d657
328a
4e90
6ea1
d60a
70b8
6ded
d759
709f
f70a
91f5
6fbe
5445
02ff
e4ce
3281
4231
1aea
1f1d
96ca
6d77
a1ad
424e
a055
f20a
ab8f
673a
d5ae
7a28
9139
c110
6761
fafe
eb7a
c8e9
bb09
34d8
e905
1077
9a0a
5ad3
7073
426b
2043
0195
390c
690a
7970
9056
56db
5069
ba90
3295
766e
2c90
7092
5250
860a
5b19
3291
597f
e36c
424f
480a
710a
e476
1590
282b
d20a
8c0a
f251
76e9
59e9
55ae
500b
390a
32ce
10c5
4990
fd0a
b10a
5a5a
0c34
6150
916c
fb0a
5044
47a5
6fb9
0179
32fc
14a9
ef34
6d4a
a828
5734
6d02
849d
229d
f24a
3931
0fcf
3296
3d20
79ef
6d7d
174c
5990
7468
659a
1db9
0af1
6ea7
fb4b
9a01
6bff
8b90
6dfc
afb9
b8ba
3c08
f2a5
c301
a802
04a9
e70a
5076
dd1c
64cf
fb43
b290
460a
7f0b
3198
ac90
0131
4298
a905
042b
e6b2
7342
2801
e938
6dab
32ba
329b
0308
eb4a
4149
f202
6de9
6d3a
3c90
bb7f
5f90
5af5
afb0
ef7d
5b03
0706
1807
6d64
3401
2020
03fc
17be
363a
2850
71e9
4448
fcef
6cbe
870a
400a
6d78
c8f9
1034
32e1
2b70
4c30
af30
84fa
5b10
3908
329c
1012
1890
50c1
742d
626f
d17f
3181
ecef
2e90
8d0f
580a
4390
0411
b990
3448
6fc4
50e0
a4a2
6d56
0750
8890
910a
9131
7761
1390
32f7
6978
f30a
6a90
b6e0
6d5e
5c0a
6fb2
b80a
5e50
50a4
6d5c
5c4d
3d07
fc58
380a
930a
7e90
f0b8
10c4
916d
02f7
6590
107e
830a
a50a
a939
05b9
65cd
32e8
104c
6d66
543a
10b9
c10a
b890
0425
e903
59f1
850a
f8b1
beb9
0304
5b1b
eb0a
6fcf
5b48
540a
7590
040c
e708
4e01
547c
50c9
4203
130a
d8ad
6d60
6fd1
4656
e50a
e227
ea0a
5f49
011b
b81c
52d7
84a0
38a0
ff6c
95ae
5024
a181
ca06
4f0a
03ff
5b8c
4c0a
8f84
04a6
410a
6d99
6dbe
91fd
3370
f365
7b02
77a1
500c
4150
cc0a
5890
b047
3050
0b0a
626d
a8c8
4f05
a8a9
0417
6d6e
1028
da02
960a
bb70
14a1
efff
2df0
56d3
6630
5a02
a88f
4e02
c50a
156c
042e
b090
6d57
6b4a
1c75
80cd
68d1
0366
c3c3
d3dc
d4be
6d5a
5073
2c0a
32b2
1d75
7b62
720a
5063
516e
6d7f
0205
32a3
32bd
f1fc
e901
0763
3307
b294
fca7
042f
2f0a
c2d6
6ef2
5012
94fb
50e4
5013
505d
32cf
4f50
7c90
a7d0
cf49
45bf
024c
6b90
74d7
9d0a
2191
6890
027f
6d52
6102
8453
c742
16ca
32aa
6990
4b02
6148
73e9
52df
c253
f2e0
77b2
32a8
6d4c
391e
c90a
6d89
3ae4
62fc
fae6
3904
89e2
7de8
32a0
b1ad
4aca
1c90
7726
9b0a
0bae
db91
8565
3f0a
8e8d
5cf9
6976
ecbf
c7d2
c01d
04e4
504e
6d72
1021
a8ad
1e66
4490
a9ca
042a
9870
624d
980a
9843
7ffa
32f6
490a
a439
28b3
dc29
6450
f10a
1528
7df2
7a6e
ab0a
cfe8
a70a
6c90
5d3b
510a
6fd5
4966
45b7
c1ad
c30a
67b3
472d
6fcd
e831
f00a
6fd4
32e5
de0a
03c0
5fd9
32a4
940a
c20a
b590
970a
3690
64b7
7267
b790
7858
92f7
6ada
6169
3338
e202
faf6
d50a
1a96
8990
b2ed
3035
04f4
0424
32e3
6d96
f253
a191
4af4
8590
c243
fce5
7001
6d92
1e68
080b
6fe7
7a90
426c
e892
32ca
414c
949c
6202
59af
5be4
2290
ad02
5dad
5439
1690
7f74
301f
b50a
50fd
037e
e1ad
3b90
02a6
4d02
69fe
6fcc
0a3a
d299
3464
6eed
5bc6
8490
8c74
c8ad
8a90
faf0
af0a
b1a2
6d2b
509b
ab90
7c60
6d67
91a9
2f90
b845
1c0a
02ee
6f89
4d92
2891
2361
ae90
04b8
6fd3
b215
374b
5247
b829
5037
ae0a
ef75
ac0a
500d
0175
1f0a
3f20
6fe6
50bd
5f74
67a0
6d68
6daf
4e3d
4690
614a
6d8f
4756
6d55
6d93
c194
5b46
653d
f80a
5a59
7f2b
304d
cc30
28bb
bed1
9d38
32ac
a49e
0a55
e80a
ff50
5a58
4974
7269
1501
b450
6690
7390
7476
3414
32cb
32d9
3637
5b5d
454d
6b7a
03d4
6fc9
fcec
1016
f3a3
58e9
5034
32a5
4cfe
6d59
392c
24ea
c60a
4c4f
8d90
f1fb
a990
50c3
31ba
32bb
bdf3
6fc7
32ab
f90a
f477
fa0a
b050
fc48
51ad
8089
4958
b40a
c6c1
4743
6fb3
190a
2011
62d3
4b50
7831
3b0a
5b14
6d53
f397
281f
6fff
6ddf
6ea0
b950
b490
f1f0
6aa4
a111
5152
d281
6230
d901
ab7a
509c
332d
a497
58f9
c6d1
024b
50b9
50c2
013f
63a0
32fd
a30a
431b
6790
4aec
32a9
e10a
3916
ad0a
b816
b690
cd0a
1996
32e4
5148
5211
e928
4230
43ec
d19d
5bbd
6d8c
a9c2
0e37
4a64
1d2d
0ba6
cb14
4cff
2690
3147
b32c
5042
69bc
e7b3
a1c7
bb15
32a7
5b1c
328f
7d47
4248
d650
2b63
0f4a
6da0
50fc
3289
5be6
0565
15ae
6d54
9e0a
56c8
b3bc
6fef
a293
af90
4cfc
34b9
02af
ab02
32b0
0538
3e90
32c4
6d81
bb3e
5550
6301
2814
aa90
6566
8190
5a1d
32bf
5690
4e50
a7d8
3a90
bbb6
2101
2d74
5054
4890
4194
2a90
b123
cb53
329f
926e
50ed
5032
7689
bb01
a908
0fc7
6fe8
3403
6fed
32b7
32c5
e47e
5b0b
7190
5b33
c656
55b6
7490
6cdd
10fb
4650
6ea8
5c42
af39
d00a
88e8
2d34
32a6
2201
d158
d80a
4850
b304
6fbb
5190
762f
9c0a
a91f
7790
6e01
6da8
6d7e
62a2
9e84
32b6
0a0d
6401
dd22
917c
32d0
f992
03ee
32f0
6db9
1422
2033
32f5
6d7c
8690
8390
d9a5
6dc6
6243
7874
32b5
b190
501d
d20e
3c02
c70a
42a5
2490
6f88
c80a
6d4b
a138
1dfd
3990
0420
3286
2295
5056
bed9
de49
9fdb
fff0
d1ed
6db2
6d88
2c09
7c6e
6d44
08ff
32f9
a4d9
4d65
81ef
5590
2790
32db
94f3
0a53
32e7
e13d
88e9
5490
0847
cb91
6db3
5071
0232
bf0a
b60a
8302
dc95
3449
e5ef
52cb
32af
b70a
6363
c172
df0a
5758
ff98
f931
32b3
caca
5347
50ab
4014
db12
3466
6aad
32f8
21a9
6479
42aa
f039
c033
32c3
5b37
d195
693d
e8ca
51a8
16f8
c430
6d71
6ab3
7835
32f4
03c1
f3e6
66ad
050d
3298
4601
50fa
75e7
d5b6
c137
5b1a
012e
4398
ecb2
5b12
5bd8
5262
0233
1564
2030
fa63
6c6c
32e9
32a1
0c0f
c6c9
cf0a
32f1
75c4
50fb
d170
328b
d252
dd0a
022a
5057
e25a
2855
3299
3385
6fd9
5016
32c1
99fb
32b8
32ee
f47e
cd20
d6c7
6fee
beb1
6eee
6c01
37da
6147
8901
6fa1
7ff7
3ae9
056c
9494
1990
a502
1b90
e839
8290
4f90
a895
32ae
b324
5d01
bc02
dfd8
5fd2
a20c
0a23
5790
07e6
66b9
6fa8
2305
6124
6962
ac09
dc50
7650
da0b
59b0
29b8
1c28
509a
7b70
01ac
fd50
a05e
32ed
643a
1531
3950
b0cb
096a
5b32
5bdf
6fa3
3a71
806e
bbda
d90a
6f9b
df50
5052
328e
127e
6ffe
5b89
530b
4fd2
b653
7406
1fc6
2b90
badd
041e
b502
32ef
b8b9
6f96
3a3a
344d
073f
1e6a
dac2
6fdc
52cf
d21d
6c36
c8b4
018b
3f90
eaa2
5b08
91a8
3287
6520
4d01
32dc
32b4
3390
059d
4d42
c3c2
5d60
d10a
e301
6da4
5079
6d8b
7c41
7ff9
19fb
53d3
9d1d
6dbb
4744
505a
2d29
32b1
e2ad
ea01
5aad
5b22
e129
3297
d97f
04e3
15db
4da0
4f64
6d94
6d98
50c0
526b
3801
6b6f
9d0e
71ad
bf20
6dff
c6d8
8138
d302
9d06
7d9a
2dea
6fd8
0af4
3701
b947
1e55
2987
6f9a
6467
6622
3711
9fc6
5b4e
5b59
7593
32da
bbbf
09e2
b9b9
c16f
1d5b
703d
308e
6f93
7722
32c9
a21c
b6f0
84cb
329e
1f85
1431
7d16
6d6b
34c1
b53f
5067
45ab
c450
388e
c350
993b
6d97
6373
50da
1053
ba8b
041c
e0a1
50f3
6608
ef6d
50f8
356d
8801
5020
f9a8
32be
6279
b821
5068
32cd
6d3d
1d74
349e
d734
21ad
32d5
a057
c0ff
10c2
016d
7ff5
65be
a57a
0247
6fd6
4190
aadc
89e1
041d
ca8c
e029
d4b6
d0ad
613d
371c
752b
db02
e00a
6e62
daf5
e0b1
6fab
6fc6
9baf
be0a
8002
0186
1baf
f09b
3111
0348
723a
ca53
6d87
6fb7
6d8d
0531
0505
e902
d1ad
f035
a539
02bd
3902
6f9c
e9b8
05b8
6daa
1018
32bc
041a
28d1
6dcd
4d58
cb52
50cc
5082
6d33
32d2
4e4c
0284
32e0
32dd
bb37
5086
afa9
c1f9
6d86
03e8
5312
6fa2
6de6
93f6
01f5
2990
c9f8
6dfd
32d3
ab0c
382c
8165
adad
5d5b
80c1
824c
7f01
666e
4402
4158
d02e
3a72
80ef
6d9d
6f82
6d7b
44f4
5bd9
5b8b
6faf
6fd0
e24a
6d95
6d23
5255
aa3d
6fd7
56ad
2adc
1ee5
2950
84c3
64ad
6c50
8a05
6fe4
2401
5036
3442
05b4
505f
b390
6f99
32d4
332c
e8e6
141d
6fcb
6d8e
3eb0
362c
03fb
0421
430b
5074
6d84
100b
6f94
03e0
7eaa
50a5
63d3
0416
ce48
38b0
6665
d439
0866
3d98
9366
61c0
6d0d
6c8a
6342
fd37
6da9
654a
7577
f5c4
8f75
946b
07e9
6242
4e2a
fcd4
60a5
9428
506b
4094
e6b3
174a
6fac
3734
fcd1
fd67
6d9b
6861
6275
7e0b
6fb0
4ead
f593
ff10
50f4
5009
70a0
44c1
a002
32df
6f92
1c3d
c438
6201
6d85
2b02
0135
0194
ba4d
6161
5062
1df4
1d50
0bb6
674d
1044
8dfa
6f91
5078
6db7
e328
6fa5
34c8
e3a2
fbff
872b
3d50
7a02
6576
4aad
03ef
35a8
4bd6
7667
bb1e
a750
6db0
981e
5b9b
5bf4
4801
44d1
50d0
da01
2303
76b3
ceaa
5601
6d8a
9121
03dc
b15a
01a8
5e34
7623
bad5
57a2
3c98
9462
4659
2e9d
6d43
2a86
d171
6fe0
0584
3a70
300f
4a01
6fb8
8465
6fa0
d529
3894
6fbd
c4ff
6fe1
6c3a
f3fd
4e32
5d27
6f8f
d6d9
1e02
5038
5643
f370
6dd1
0147
fb53
6f8c
f5ff
02b3
0178
4e31
86aa
8fa9
c06f
50f6
6fa4
6864
d426
5bd0
d3c2
6f9e
6f8b
e8ea
0426
cb1c
34d9
ff8c
6dac
5d02
6d9a
01a4
764a
936e
90ad
7a48
2005
5bdb
372e
fa4a
7801
5075
a80c
61bd
93f7
4427
623d
3055
7c01
03ad
50cf
126e
6fa9
04b6
bbe2
a7c8
658a
34ff
ed50
90a9
a74b
2d46
6da5
6fb5
34fa
5e24
6fdf
48f8
c530
5a51
6fc1
9ba5
2d43
7dad
6e09
03fa
6974
6c02
ece5
f59e
7857
105c
51ff
6001
6403
344b
6fb6
c0ad
f1ad
5b6c
28a3
6df5
1e01
5089
2dad
6e4d
6fbf
6de5
f9dd
d550
6d41
bb14
762e
5b11
5b4d
6fb4
5350
6dec
9165
6da1
6fba
5370
bac5
5bb9
7350
3aec
7569
5b0d
5005
e921
6fde
48e9
6fa6
e623
50f1
786d
3764
1f0d
6474
7077
ef24
6d2d
793c
7128
f021
3a02
0255
6db5
6493
ad99
5b42
4750
4312
1aad
2802
6255
28d4
3016
8838
055b
5155
0a47
3d29
4e6d
5391
fbdb
622e
282a
211b
5539
2b4c
50c5
c11e
2829
5d44
0de4
61e0
0a1c
6fc0
6d45
a0d2
7f89
012d
3636
6fc3
6f8a
3a6d
2054
dead
505b
5bd7
7368
6ff1
ff64
64c4
6fbc
5be7
b6b9
e1c7
5b81
4531
3510
6f98
8017
6d9c
47ad
34c2
4202
e9ff
1514
6f9f
a3d7
7fb3
6d29
1e6e
5363
03a6
6d38
59f0
6fa7
40e8
04ac
1ee8
10c7
1614
5bda
f57c
14d2
3d01
f333
2997
4151
57e8
6fe3
9050
3441
6faa
04aa
a6b9
7cbb
fe81
6234
6fdb
5b58
6fb1
68ad
58ad
1c86
603d
51fe
e677
5053
349f
762b
040f
6eef
d6d8
6d39
0414
65dd
1030
bb72
4dc8
940c
7ddf
50cd
974a
64d6
5743
7830
50b0
75b2
baca
01d7
1999
0e56
68f5
91ef
666f
2881
5055
43ca
8fad
803c
80ac
6f97
cdc4
bb8c
018c
a9ad
eccd
80cf
42dc
ae14
513c
5d50
5b6d
3a01
04b2
652e
5fad
6667
03e9
6f95
5a50
74e9
6d14
50a6
6fc8
50ac
201f
7b63
a85a
6fae
09c0
4246
5035
d309
e206
9dd2
4247
f57e
4241
5876
309e
5a5d
086b
6fe2
6f8d
50de
50bf
76ad
4066
6669
d64f
6142
6fce
4554
5ead
612f
6070
f375
0b66
8d9d
4964
696c
e90d
504f
272e
280c
01a0
504a
6f84
01e1
6d9e
d7c7
228d
6e79
bbe0
df4f
5b18
454c
d288
99f4
e1f3
4272
6dcb
70a8
5101
5c50
5060
84f5
755f
e705
d643
0139
ae94
8dea
6470
4724
8301
e602
5015
5102
e8a2
22bd
50d6
ea6c
6fda
6fe5
0a3e
9484
0370
6fca
acfe
0236
a6d1
5ca6
cf56
3805
157c
5b0c
1401
0357
3702
d646
6dcc
f60b
1450
5b64
3641
981f
4e42
6256
fd77
10cd
bb08
b001
3411
4fb9
9d9e
49f9
5bff
04a8
4136
6d13
75a7
d634
6e63
2eed
4e24
5033
4361
0c33
59bb
6d28
cb04
b6b5
8f50
60bd
745e
6d9f
3802
5cad
a128
b945
a3f9
2509
a370
bce7
4b66
a014
0256
7379
5c55
645a
05fa
4d99
6d26
64df
bfb9
03dd
dd41
29ad
0e30
03e3
24ca
374c
6d15
987c
3a79
5b9a
6924
c607
a494
e0ac
6fc2
8ce4
4701
cadb
03ec
5b13
8ddb
04ae
5b43
9509
2028
4b48
0427
8828
473a
e9a0
6162
50a1
5085
36b9
5030
b334
5b82
7db2
4946
75f1
e66d
0423
53f5
20cb
c3db
6f87
7550
fcad
5c7a
04af
50d7
5b96
6e11
b81e
f363
ed6e
1276
03cc
2224
5b7d
afe9
67ad
34b0
9eb8
02b9
103c
b2bc
6fd2
cfd1
5081
18ea
fae1
d642
5b51
5bd3
50c6
041f
3a4d
a95a
db52
9d16
a81f
5b3d
3994
04ab
f602
1bd4
2906
f3ea
5c01
e13c
634a
b47d
879d
624a
7bad
6fec
0d02
5137
6ead
51ef
1ead
a850
534d
6979
5b30
5047
59ed
e035
1660
6f8e
8d01
f664
034d
7f6e
3103
644a
0422
345a
2c62
4527
5b88
7463
77aa
5d3a
fead
6de8
f550
5b63
04a7
0c21
50a7
342e
28b4
efe5
01fa
50eb
7e74
8008
61a4
64d7
341e
4e53
e551
7c22
38b9
79ac
041b
b630
501f
bc63
652f
8f02
3105
9801
e6e5
60a4
7dce
5022
ee22
6c2f
5087
5b61
7014
5039
4e23
a091
7ef2
d209
0e50
0e38
509d
5642
2205
5b72
5b62
02ef
ecfc
ed86
4258
b88e
a630
e6f3
3002
f502
6e02
0282
0419
4e7d
6d3b
3750
6d22
1e15
18f6
5e96
1e99
03de
e5ad
c125
03c8
1266
5b92
2dec
8202
407f
7d50
7cc4
160d
8816
a3cc
91e5
7779
fe02
c9f9
fc6d
586f
03d9
40be
4979
6ea2
7ef9
50d3
50c4
f4c4
6ffb
3120
6ddc
ee51
03f1
31b0
b3ff
ecad
08a2
f8ad
4279
2304
bb64
291e
5072
2779
ad09
813d
9038
44ad
703c
85a0
1d52
50bc
6d3e
5b47
636d
03d1
4a5d
1552
7099
5b21
0176
504c
6c37
50ae
bb1d
fa16
c114
c002
8f08
7962
072c
3888
5bf9
4232
cd14
4308
49ee
8e9d
03ea
6f86
2ead
da12
3d09
eeb2
5b74
80ed
5920
524f
6b74
bbc4
b8d1
94e3
fada
5bd1
84f2
6f85
28b9
807f
4802
0169
e0a8
36e6
e9a5
04b3
61d1
5f50
9794
03f4
fca6
b52f
3b84
a402
577d
4c06
508a
03d8
767e
a9d2
6570
e65a
5b4a
4002
98f5
2d6f
0350
986b
1b9a
f031
8162
2369
2eda
0307
200f
c204
78a1
ca45
4255
14fd
b2d8
6332
3ae2
0e6a
5095
a611
645d
7661
585d
34cb
d6ad
344e
50a2
98fc
342d
dca1
7401
ece6
4dad
e541
597d
7c02
506a
7e02
551d
fb6e
01cd
750c
e522
03e4
5099
71b8
fb01
6414
5b4f
0263
8802
a0d6
3762
cb8c
f1a9
4ac6
204a
b03a
5003
022c
6dd9
0af3
c2c3
4941
5be0
db42
7002
8530
c871
a9db
5bfb
80ce
6ccf
2dc8
5b39
7074
04b7
6d34
0c65
5b79
3404
0c28
4251
7050
0c75
3447
4950
56cb
5ff0
456e
501a
5bfe
84db
baaa
03cf
1b7e
642d
db70
44b6
4225
5077
01b6
6fea
a49d
3a14
6db4
c281
a64a
6d2a
21cb
b7da
017e
2601
6db1
c642
5e76
c520
a40d
0a4a
956b
98f4
3602
348f
0253
c539
b9ad
4e3f
7b87
cb4b
3301
50a0
aaad
4401
cb5a
d1ef
6d35
9450
45f1
7850
4a69
6096
1903
6611
6dbd
ffad
c3d6
e908
6d16
8055
27e9
64c5
b678
0392
fda7
e03d
0288
155b
3460
50b1
7d02
d4d1
7979
4733
f2fd
5bf1
e3f0
3e20
d659
7095
fce8
03d2
a284
8f74
7c93
bcf3
5141
0bba
082c
022b
cbca
8831
2d30
4301
7ee4
fabb
ca01
029e
6d3c
7836
6454
8bad
e55e
3488
66e8
0134
75b7
4236
5b6e
0bbf
82ad
215c
6d1d
61ce
03f0
6dc8
b014
40e0
5bab
5de8
7cd4
e8e2
6d32
6950
dd45
6c20
92ad
7c2b
6386
b831
e0a5
5031
6cd1
6df1
4649
dd15
9aaf
8553
fa6e
45c0
ba4c
64e6
787a
50f2
5b84
6dbc
2943
42ad
b778
7502
6e2f
3408
8450
9b50
c8cf
7e22
3b70
4951
786e
45af
03ed
15c2
2519
5088
10cc
4501
3c10
0702
0230
7b50
7dc7
83f5
1375
f9d1
101d
0e24
f0a5
ce0d
0a6e
3dad
503e
78e9
69d1
841f
d1e0
f1f1
9901
d7d9
03f8
5b36
501b
6602
6969
f3fc
23ad
863b
e661
7060
4238
34ca
5b6f
b850
8b01
6feb
3601
03eb
4262
6dba
67a8
340c
a95e
db65
391c
7676
bdb9
2911
5ada
0cb8
7b64
0ff8
610d
6ef5
aba2
9062
ea7c
c758
a1d6
7e9b
db98
7251
03ca
6760
3302
7708
c901
4ef1
3102
fdfc
940d
1d13
8de4
6ebf
c4a8
cdc0
30da
dbf5
385b
4261
aeb9
5732
eaf3
50d8
346d
10e6
03da
a384
1019
a4a9
b33d
50c7
64a9
d6a4
0b3e
53c2
755b
c599
d496
024d
1b01
6ff5
d958
5c02
03d6
08e3
fe69
1010
aed1
f674
5017
2e14
3ade
bf29
f233
ea4a
a48f
f7da
64e8
281e
5b3b
64b9
03e5
12af
8276
5ba3
acb9
955b
58f1
4502
4fae
635a
ef20
4350
d9e9
e7ad
0409
6554
50bb
509e
a4ad
6de7
6deb
292b
3315
04e6
300c
48ee
b0db
9602
9819
f23d
e8e8
6ccd
ec50
d501
38cb
0244
afa1
bba1
b370
5a56
7a5a
5779
73e0
4f01
4159
03d3
950c
5a14
4aaf
5b44
58cc
f61b
50e2
57c8
039e
6ddd
ffd4
47c6
690e
6db8
5092
3cad
69b5
b302
2379
5b2d
1b5d
2f50
37ad
0a3d
67cd
03f9
37c3
a620
1403
a9a9
fc5d
4858
e8c7
502b
1962
08ad
0167
c550
21ca
1c38
af14
bb9e
eab2
b620
46a5
8097
8ba1
a3dc
03c7
42a1
22ad
508c
7c50
f3bb
dc08
5d37
a3ad
4e30
03c5
f058
4d08
5bdc
50d4
0158
7f02
fd4b
c971
01d9
5d3c
68c1
2d91
e707
e246
679c
4e73
fdc0
4901
04d4
5449
4e35
e5bb
239a
89d7
64c7
58e1
e501
5beb
772e
3a5b
41ff
8f1d
2d37
6a43
793d
5b65
5ff7
05c0
d20d
43bd
028c
8b50
500f
2c50
b98e
18e6
7655
6d03
1046
345f
1430
a484
9416
5b7c
6ffd
1da0
dd30
9dc2
e9f3
c7c8
6a02
03f2
f493
c749
fcee
4a65
fd20
5b16
1dad
3afa
ed65
1402
23be
5b7f
50ce
ecbb
74de
0bbb
03c3
75e9
17aa
3a61
4263
3c50
0162
0871
4c01
b131
7b65
6ff3
fdad
348c
ed46
dc20
2bdc
e5ce
03ce
096b
5969
f350
a088
c95c
e90c
75c2
2392
92fe
1370
7589
a615
cd50
5901
474d
840f
0a45
bb95
e201
03d5
c5a8
59b4
5e3a
0182
1b94
487d
b6ad
5bf6
03cb
a6aa
40ad
64d1
4eb8
a5a9
2450
d18d
59f6
9e56
7662
f5ad
e03c
47a4
6dea
5b98
50db
ebad
f5f6
6dd0
5b73
03f3
6236
3ad7
08ef
6166
aebb
7302
fcbe
50b6
70b9
01eb
7be9
4e6e
6447
03d0
500e
8014
7641
e101
9a7b
544d
4d5b
348b
6ff0
50af
5bbf
ada0
50f7
fef9
1e50
d105
53f7
5b7e
9a3f
5bfc
e9ac
8f09
5b5e
0152
49ec
5bb0
a9e6
e4e8
6d3f
3487
f7a1
6366
021d
ced8
5b4b
3066
50dc
80d2
ce9a
a5fa
5ba8
4163
0f57
3749
8d8d
501c
63d2
284e
5be5
b2a3
dc02
08fb
734d
a12d
5d14
bbad
5401
5023
0407
5b04
534c
937e
4fb2
3b94
09f5
6802
6430
e46e
2b4b
72ad
fb87
5b67
5b77
623c
fc02
ff04
ed02
3452
0964
c001
645f
2f01
8d1f
2be8
2653
e703
5e35
f207
3814
4aa1
ecd6
7b69
414a
d5c8
f33d
4e6f
c12d
d1e8
496f
3aa3
7220
50dd
2d02
b4b9
5bd2
c158
21a3
83ad
ef01
34a5
6d20
65ab
0242
1466
6eec
7cad
2204
260b
220d
b7ba
782f
7802
8f99
03e7
3474
ac08
e9bd
341f
fccf
0281
d15a
238a
4239
db0b
5e02
4caf
53e5
9002
fcfe
1825
76c8
07b6
7b20
7d6e
9784
6bac
0172
6b30
2b09
34a6
e31b
5b4c
426d
5091
7522
407d
41e8
04c0
6434
3620
9301
517f
3a43
3118
7951
3501
ee9a
bbe1
5b71
b9ba
013e
f25a
e612
a450
503a
f2a2
92f6
101b
0c31
03d7
8ead
028f
014c
c242
8b43
054e
6ffa
3454
02c0
34b8
6050
b101
3b50
fbad
9838
e8ff
f2be
5125
fe50
5b5c
6ddb
7217
34cc
baa9
424c
344c
b3c5
474f
60ac
bbe9
6eb8
6b65
54fd
331c
6350
dc28
4d68
5cb7
edad
646d
071b
358e
282d
ef9a
2a79
0265
1e09
6d2c
4e77
8d5b
9266
6631
14ad
3c11
6266
34c9
6e66
9ec6
a008
8fb2
31aa
d4ad
3a4b
5dec
64c0
bec1
f26c
5bb3
3cb9
1701
3567
08fa
01ee
5b8d
e3ef
3422
6dca
29d4
8096
c884
6de4
254e
6d06
d8e9
09a2
6de3
625a
5646
3074
8aff
d363
299e
aff9
8fe5
7150
6375
5029
6df8
6ff2
d1f0
59ef
0eb7
35d1
5f70
d87f
6ff4
2015
03c4
48ec
ba51
90fc
8189
a8b4
342b
626b
6079
4702
e381
7ead
4948
fd51
6de0
cac7
2aad
d151
3418
5b55
4e79
595d
6b03
4331
59fd
6664
0243
624e
3a32
5d28
fa6c
b452
3123
0910
f3b4
4370
343d
50b7
2d5b
ef12
5be3
56d6
6c93
88ad
6002
9d50
016e
7e26
8b70
2824
7920
4f4b
6dc3
3f50
4b12
a801
508b
7624
9563
4fc2
16d6
16c6
71ff
6dfb
dd50
5bee
4e6b
26d3
64ec
3744
3470
0cfb
7679
25ad
6750
db50
494c
64ff
b401
6ff7
eead
38ad
6497
6ed4
946a
d7ad
74ad
2d68
5870
3d5b
6d17
6578
4e61
f3b2
348d
4e38
49c9
94b8
f37c
2a42
6e2e
6ff6
ef64
2350
5d5f
db01
03cd
0c9f
ddad
e450
5c14
03e2
10d5
8427
406d
6dd8
7d22
02ba
55a9
441d
7501
a947
59ad
1376
6dc2
59fa
1d02
7011
6d11
66a0
80dc
5161
3347
6dda
7dc6
5b8e
0b7e
40e6
dfc8
03db
5028
34c3
948d
5b5f
2b84
376e
5b9e
4209
89d5
34a3
77a3
5171
2002
d208
e1a5
46ad
5b0e
34b4
836e
97ff
43da
5d2a
6ed2
3451
b9d5
4e43
d97d
4dd2
0286
7e6e
f1f2
6801
5bc8
6de1
1cad
734a
6b70
a614
4d69
3da9
c894
af5d
6def
01dc
a4a0
2097
7e01
01fd
6de2
fdb9
fa75
2838
c9e9
01f3
5249
2de3
89e6
973f
6701
9370
dc09
9799
4526
2206
3d41
6850
1901
7420
4253
7de9
34ba
0165
ed12
14b0
52ad
502e
8aad
8050
2145
7677
8834
4051
34d6
8f85
77ad
ca1d
503b
2d01
b92a
1e9b
4797
5bf5
2b69
42a2
6302
f343
295a
374d
3763
5a57
84ad
4d4c
2b8d
e8c6
6331
62c0
507b
7901
8cad
ba4b
f1f8
7353
a147
6804
fe5f
07ad
ea20
ad28
02fe
3444
7a79
2f34
c3ad
4270
5bbe
101a
027d
7575
50b3
5bba
3574
73f1
f548
03c9
e8fa
8b02
49ad
7631
b361
d87d
17ad
3891
fccb
dda1
a838
57d2
0d4f
12ad
5b24
f8d0
7436
646e
5b57
6dfe
fd01
0503
34a4
43a8
b588
89d6
df67
6d1a
9128
6dee
50ca
3eec
4256
b128
507a
6ebe
da50
5bb5
64c6
89ad
99ad
aa5e
6eea
c017
70f3
6109
c352
f1f3
455b
bb2a
51b4
4b0b
fcfa
6dd3
55ad
5bd4
aa13
d301
03df
58c4
497c
2a2e
fd6d
1b66
6911
9377
4e7c
6d0b
7634
34fe
45ad
2501
3503
c21d
5b78
04c6
31b9
ed77
5850
5baa
35d8
7474
425a
0d0e
280b
d14b
9413
e706
74e6
2859
c420
35ad
6e35
ed23
0330
3603
7e44
75bb
0bad
22b4
5bfa
5bb7
d742
2d31
4d09
783d
5b2e
4742
341d
104d
b679
783c
15f4
fc41
50a3
3467
577e
a13a
49ef
76ed
8452
bbce
0504
ff7d
03c2
291d
3407
4f02
2cad
1a8f
5ae8
1062
336e
5e2a
d201
30e8
5b68
6dc5
531b
4634
7d46
3550
0225
4b59
4e51
5b1f
34b3
746f
6d10
7279
d143
4430
67e9
8b7e
f601
3497
1060
e650
5019
6d27
a10c
4e7e
fcd9
8fe4
80e9
e4cf
fcd5
ed62
59ee
5bc0
eaf6
b004
5941
7f7f
6dfa
3478
54ad
a188
5021
215a
6dd4
bed8
340b
4a63
a4c8
e924
f301
3416
0e57
7202
e850
3352
5958
0575
d148
0c03
abff
df59
6cad
6cb7
9c9e
5b60
0842
424a
88ed
5b66
346a
a301
c2ad
3947
fbec
1902
31d7
62d2
0d50
4e74
3741
f850
7723
6d09
5bc1
5ba1
86ad
a2ad
eee5
66ef
48cd
e756
aec8
6d0c
5ba9
bfa9
93ad
7fdd
b4d1
eb01
5bf3
6638
0c1d
c770
3088
a501
5b3a
950d
018f
3933
3c42
6d25
4ad9
d9ad
61e8
73ad
1301
2307
9d9d
bff0
2d57
59f3
697a
0d5b
4e4e
6745
fcf4
49c8
ee50
6dd2
7aff
014d
8910
6e44
acad
a441
5b2b
34bf
4059
235b
6ea4
23a3
53ca
c299
7fad
732e
6ea9
82d8
0c35
bbf6
75ad
7f3d
2047
349c
855b
15e2
34a1
2c08
fd02
aad6
36ad
c373
7062
6d18
4fb8
41c8
022e
0f50
a694
91ad
4ccc
3cf2
5b17
9502
e1d1
a0ad
6272
d648
ed11
34be
15ad
5263
a1c8
5179
f551
aeff
9550
383a
28ff
5bae
285d
f55b
5e23
cd02
809e
3428
21c0
e8e1
91e6
ba2d
3547
5b56
6d08
a7ad
7863
4e6c
6758
6463
cbcb
1b7f
6ff8
584e
0d5e
b6b4
386f
8be6
7489
c362
3605
2041
ba01
0a50
255a
4e37
5bbb
354e
d88d
5bb2
1a14
c902
62a4
0d5d
09ad
5bb1
4e52
4c6d
1b02
80bf
101f
292d
5be2
6ff9
3c34
c8d5
2804
3412
f454
9de3
0bcb
4a49
1428
a7a1
5e3d
d005
616b
5b20
6a53
e86b
5b8a
b957
19ad
4e2e
5e7f
3bad
476e
47d9
4602
1966
ce81
7edd
9201
627d
084f
4219
4874
3455
e802
6dc9
2394
77f0
50d2
34fb
550b
d979
3d93
5bfd
34c4
4a6c
7935
5948
b1ca
7f32
bdad
349b
0a78
1524
662d
1e1d
7206
349d
c20d
1e4f
1f02
334b
01a9
61cf
040e
6731
767f
7d23
978d
59fb
5753
c293
624b
7638
5d33
b5ad
545c
4e47
9bad
018d
5c9b
5b93
8a5c
bbb3
53ad
392d
bb8f
c3f3
6df6
02e6
d250
2a4a
c263
6d24
5b9d
1eec
3850
dbad
41ad
2be2
280d
4d31
fccd
4e39
4fb7
234b
7496
bbba
34b2
1656
4ed9
d398
a81c
0a5e
5ba0
67d9
3443
bbeb
12bf
d370
5d26
8ffa
61c1
5bf8
3c4e
b44e
496e
47d8
8784
3475
6dc4
aead
daad
6ea5
8e94
7618
e6ad
494e
7035
3e31
e90e
4732
633d
6768
4e72
7fb2
669f
0aff
65a7
4e4a
d9c1
dd6e
6dd5
77bf
34e2
5093
a5d9
ca63
5246
5a55
0e10
a5ad
ad0e
2342
3496
5b23
59fc
3911
4271
7163
01bd
fb5a
7d5b
4e08
edd6
3472
abad
288e
8789
5214
9e50
5b07
5b69
6a5a
345b
7814
fb50
35d9
5e33
7e10
3a74
50be
347f
7561
6d0e
76b0
2886
428f
5979
6334
8dad
eb70
98e5
4aa8
ec47
26ad
7361
aa01
69f1
7466
3beb
4050
f82d
e550
3614
234e
70e0
4e55
381f
c02d
4264
a8b9
5b41
4e41
5b97
7b6d
6436
4c98
50d5
6b06
7902
023b
4e3e
a814
e95c
2bad
344f
6df7
b2f9
8d50
ec2b
a8d1
6ee8
6b01
4048
3d28
6cfc
34fd
aeb0
3f15
b002
0905
53d6
6a85
1425
3765
0b70
644f
6a6f
ef26
5ba7
ae20
fcc4
fcf9
d094
1d08
42af
4bad
2aa3
081c
a9d5
d3d2
4959
5ba5
4269
6df2
ecd2
56c2
959d
9965
292a
48f9
3eda
c129
5602
424b
4461
d1c8
3052
c353
5b75
502a
371d
5bf0
e8c3
4ae5
2b50
b550
1050
419a
103d
5bb6
3941
d7d8
f6e5
e8e3
80d0
502c
61a5
5b6b
cfd9
fcde
34cf
4902
e674
eb02
5bea
5802
fce9
5f02
4f49
7ced
ff5f
2c01
d141
c6a2
8c02
3459
5a1b
6df0
fb70
6bad
47d3
625d
e909
3456
172a
5b8f
66a8
0c8c
85ba
4cad
e4e7
f332
ada9
0cad
3d30
b4ad
5902
6014
3656
4e76
5bc9
34ec
372d
4978
a133
5bf2
494d
5b54
ad29
6025
3471
6df3
b928
0259
adb0
d3ad
0228
7eb8
4257
5094
360d
a6ad
9747
8e08
0c9d
5bd5
90e7
34fc
e002
6d04
9101
33ad
4102
c4d1
5202
69ac
030c
1eb3
63b0
05a5
6d1e
e891
5ba4
9aad
a448
010c
08c5
7271
d2ad
4574
014e
5eaa
e8e0
bfe9
6cc4
b7e9
5bc4
6660
28aa
bbae
8402
b9d1
4e6a
3650
e878
684f
3014
2352
6c6d
8a3d
fb96
7702
62e8
a804
c035
a401
e60b
3d99
776e
ce59
45a6
6237
3995
8937
bbb4
9010
6951
f03d
5bb8
6ee6
8501
fcb6
1550
398f
7950
8150
f250
9a1c
1702
41d6
34c7
a95b
5b38
5bc5
18e2
0fd6
5d3e
6a59
5bb4
5b34
1e2a
fc01
b3ad
04d1
89e4
2c06
5bed
1465
5b7a
f401
4c53
2642
5bcd
3479
735a
b0ad
f8c1
5d63
aa02
3d57
2d41
8d02
fce0
765d
01d5
45b5
ba34
5da0
e8e4
7603
7647
5c36
5972
3063
013a
ddb1
10c0
0248
c6ad
6492
512a
5bef
5b6a
34b1
24f3
35a0
5aa1
e250
5b45
d159
3753
14b4
bfdb
5baf
e709
8a02
f3e0
9302
706d
bacc
4bd8
3fad
49e0
4e65
b2f1
5be1
6666
6ee0
766d
e1c1
7f77
5801
3405
7ed5
f841
7df3
01f6
fe1a
5b26
0a44
22a7
5b3f
a8cb
4c02
3db8
39ad
5d2e
d9c8
6338
7de7
2b7e
fcdf
29ea
bead
5a8d
faf9
eb17
4e48
f7ad
2925
a124
85ad
ba5e
7b17
8525
2250
76b2
3457
5a07
3903
59f4
d756
6530
5635
9e3a
dcad
eb50
34a2
c14a
4276
84d2
0388
9c08
bb4a
6d19
2839
4431
59b9
6df4
4758
6df9
0145
8242
5372
f3c0
f556
fcd6
2a71
5ab1
c014
0a41
1d45
1e08
6253
59fe
b4d8
6c07
8366
5b35
ecd1
c4c1
7247
30ad
3c56
63fc
7063
1de9
0f9a
2825
6eae
4e22
d859
3a64
ec22
dd2f
34d0
b360
5bbc
c71d
70b5
7ff2
9277
cd26
2a60
bfef
1bc0
6d21
68e6
bbab
0833
0807
2eb8
9d1f
34f9
423f
215e
a12a
577f
aade
e8bb
65c0
051e
503c
34bb
66a1
8433
3303
4277
6cb2
b6f9
d6c6
1f04
0d06
0c10
ed22
7ca2
6060
fd5b
028a
20ad
4f47
0a16
359b
e24d
a118
d058
dc36
ee02
7837
0baa
3c5e
c8f0
34bc
beda
8f3d
d879
7660
4e7f
534e
59cf
3410
7cd6
5027
1fad
65a2
5154
fcf3
6941
4dca
612d
fcf1
bb69
6535
4210
7dde
6130
8e98
0afe
fd6c
59f2
ad5b
8401
aaff
3fb9
3b02
d5ad
613c
64de
4e78
d850
efad
5b94
e907
7a43
3aea
6eb1
2d73
1e64
8650
c95d
503f
25cb
2d36
2c02
e8de
8902
4e03
9276
8e3a
e8d0
347d
5c27
8eec
10ba
59ff
e8df
2f47
bbc2
5d30
341a
c2c2
4e63
2a9f
c7d3
e952
5b76
c4ad
cd39
a741
8550
3413
3a50
3af2
0b84
0224
1c71
2f4a
2231
9009
7750
0728
0285
47db
8289
bd02
54ff
6cbf
7072
b205
5a1c
4d46
dc9c
a005
4fba
6b02
b4ae
6560
9e99
4208
5159
6ea6
7101
7ec4
c045
fcc8
f6ad
b1a6
081f
0c70
764e
baa2
2f42
3094
fcea
fcd0
34e0
280e
16e8
7a14
e0fa
fa01
c9ad
d9c9
3a42
09dc
cdd8
d45d
02bb
ccad
60e6
34f2
f7f0
0525
5d47
585c
8e02
7856
375a
0218
7e45
c7ad
5950
c36a
01c2
b261
3ead
62a3
43e8
2849
5b9c
7cb3
76ee
9dfa
fcfb
5d20
ba02
87ad
8930
5cff
5de6
ac03
46d3
da63
2aa4
3453
65b2
cc02
2728
4879
a104
6d0f
e4ad
5ae5
3015
643d
0292
75ce
4268
4b99
5ba2
0850
4235
4a13
8701
3458
c649
5b1e
df56
13ad
4234
4dc9
6a01
5b15
3004
3714
a314
0221
d104
b018
c858
fb02
f661
34c5
761a
95fa
178d
9b70
88eb
b4b5
0599
508e
5856
83e9
10c6
5b3c
27c2
837f
4278
9077
2bea
79a5
cc99
7170
2324
67f9
011f
6ed5
a4af
555b
ebff
535b
6475
346c
f4ef
2be1
b65a
9a14
1bad
e8d8
4a68
a081
772f
4e5d
8dc2
4e70
2d0e
af01
c870
b801
ec6d
454b
8ee4
6477
342f
474a
3509
24ad
eaf5
a918
8e89
5d7f
a40b
7ea1
814c
9b42
a010
6d07
2d65
2623
63ee
9987
429e
fa14
4e62
b293
76be
b6b7
6423
9ae6
4273
3f02
508d
2e34
d55b
6c72
a601
e69b
208e
fa02
6d1c
5f01
5f3b
5b7b
3da0
4330
9d5b
9102
6edb
3ad6
b8bd
2502
8281
594e
c9e0
613a
20ca
4748
78d1
f450
c5ad
3499
ae01
5853
77da
414e
28d5
2347
4299
6d12
fcf0
a60c
5c37
c135
023e
bfad
c346
74d6
16bd
1b70
6457
b3e9
42e8
b260
43ad
b83a
6d1f
5265
cbc2
fcc5
e467
31a9
d3a1
8e74
5d1c
34b7
1202
cc01
0239
1f01
c302
285e
7ded
427a
6274
fa96
8e09
5631
2cf3
e0a4
da14
21ba
5b05
14a8
9919
cf46
2902
fba5
bcad
5402
ad50
5db6
3446
7f67
eaf4
7452
fcf8
8502
e906
7b53
a102
f5fc
93fe
7961
1267
1302
0831
7838
c370
2b01
f101
9b2a
67d4
2552
7102
0144
e577
5d99
7464
6d05
9d84
65d4
5db7
90e6
f4e6
5bf7
981c
a2f0
fbda
5b3e
573a
5e78
9060
7be8
8367
72f1
727a
5f73
c37a
d002
29ba
0f56
0196
d530
fcdb
7d45
972a
940f
015d
d1c9
27ad
34e1
dc26
6416
45c1
655b
0c02
2945
efe4
5bdd
2542
2e75
5bac
58d4
e8a6
3752
0410
fccc
0523
7f44
2805
3473
0981
f2d3
3481
2f73
9322
ca52
e2e0
3415
1e67
ee01
34f8
2aa8
6448
65ae
51cd
49f1
59b1
6e20
9cad
3851
0e02
62da
6d1b
9a02
fe38
2ed3
7870
41c1
8e01
755e
1db0
f57f
0f1d
cd21
5deb
028b
d801
7252
4a58
6b50
f901
5d2f
a00c
fce1
3022
a122
d4c8
216c
5b25
2b61
40c8
b65f
2753
724f
5ce6
a059
0967
e92c
4291
42bf
5261
c850
c101
3662
4451
a629
4e36
60d1
6339
0822
8f0d
64f4
3546
3520
e69e
9d9f
2896
9999
41c9
7664
13d1
348a
349a
6420
340f
74f1
2fad
dad8
2841
0a8b
a605
f93c
9650
d599
6462
8009
0291
0289
9fad
cf59
5bce
4c50
7614
61b5
b138
13b1
0246
34bd
b701
34e8
5133
0c9a
6271
a8d9
163b
dfad
34d7
4551
c2f3
5a5c
5b0f
5b87
b214
fcd7
7d20
232c
e57e
b46c
94ea
c0c4
cfad
6960
28e1
c24e
7389
6967
4414
7f18
f750
10bb
162b
b3bd
098f
15a0
1850
2371
c969
6ef3
1674
4fdf
ab01
da05
0a32
1edb
04ff
2034
7003
fcda
f802
fc32
9199
ff6d
0237
5ed9
e2a3
e9d1
9810
8f98
6446
4653
8601
cdad
18ef
31ad
4153
9402
021c
485d
6857
02b0
055c
696d
88e3
f8d8
e070
f950
f5a6
e1b5
028d
b7ad
dc54
2aa2
70e3
98ad
426e
43ae
8f88
8c49
2a7a
5b2c
426a
4e14
4e7a
3f14
ac59
656f
6e69
aa4e
e8e9
098e
0394
147d
5869
bf01
0b23
a7c1
6942
2aa1
23e9
3dd1
b814
247c
fcf2
2124
2ad7
4e64
4e56
95ad
0c50
c391
0950
3423
bb2b
8125
3477
0198
d229
9108
7f9e
b03d
762a
435d
0d04
b8a4
6171
2aa5
6ef4
b114
8f5c
4b82
76e1
2323
4e75
1350
0d63
5750
596d
5353
4859
7a16
2c57
347a
8f7c
9d30
4237
5aaf
5259
b82a
62ac
a9cd
64cd
027b
2a5b
a47c
6526
92ff
10ef
c55b
ecfd
25e3
fcdc
a0d1
ed5b
ee74
dd99
7a42
6935
e638
5158
4129
ac93
c123
6e81
2f02
3a5e
7ccc
656a
bea1
adb8
5d9d
f52b
e3e9
8266
345c
5e01
a602
f342
d184
e52a
4cb6
1872
70e1
9f02
b605
814d
d308
2108
5da9
d001
6e9e
0b02
796a
5d76
699e
a6b0
6bec
3c47
9d01
3091
9c01
2fff
5e5d
e271
c141
5a63
8f20
9389
4266
341b
37cb
3314
52c6
d1b4
f061
caad
fcd3
bb7d
1c65
fcdd
c8a4
080d
0312
6144
cd37
69e8
dc27
0174
6160
2102
33c7
fcc3
e38d
d9ff
347c
595c
eb86
fc6c
b204
cf48
4bf5
b105
59cd
2bdb
b333
4359
5149
af1c
b0d1
644e
475a
5502
4e71
767d
34c6
2402
5dd8
0c24
6259
2bfb
513b
281d
808e
db49
23bd
e050
97ad
7005
f23c
7fd4
63c0
3c99
87ec
0893
426f
af5c
dacf
794d
0415
e925
4274
7455
3aff
3e02
0a5d
a61c
28a0
01f2
4642
81f2
5436
2014
fbe7
8723
4233
4343
fce4
3a4e
5a36
6443
66b0
7fed
67f1
7242
a701
b7c3
9802
f0f3
423e
8ef5
bd50
6041
59f7
089e
84b4
ddd4
7649
7627
63a1
c1b5
1414
65ec
6ef9
285f
2b94
662f
0a17
620d
b5fd
5b9f
3369
b8b5
5bde
998f
5d3d
7030
c7a3
8ff4
6442
e1c8
9ead
5d48
0226
637f
345e
5219
667e
6869
34ab
0962
770e
2db2
6767
9875
3a30
a45e
dc98
2861
70d1
3492
5553
0810
7c47
5d8f
e8c8
4e2b
53a1
6404
d8f0
b808
85c2
8f3a
b949
6618
f3a4
040b
a449
8fbc
af02
501e
3424
6afe
7a04
f1f6
5b06
0eb0
6966
4137
bbfb
4e3b
5e2e
3ae6
39e0
db14
7616
5968
b24d
302e
3c19
f2b0
9b44
873a
e9a8
3409
1c25
6476
34f7
d101
7b0c
ea02
4f48
6ef6
8c50
fce3
3dc7
a201
ae31
02b7
5d0c
9828
e5ff
4ac0
5702
a702
516d
5d0d
d959
5f42
6cd0
3742
4275
6e97
4447
d951
5dd0
9578
e95b
6a50
7173
16ef
395d
6eff
b2e9
234c
5916
48d1
0117
5afa
9981
1c02
fa5d
eeef
c429
2c32
9374
9202
3158
c02e
7250
09cc
3a47
01ba
2d32
fce2
7644
4d54
5633
fcc6
981a
7efb
d0e6
3fb0
faef
023c
6141
dfd0
b03e
4bd9
9ee5
e7be
5551
a9d1
f0a8
cbad
43a0
9b36
b46b
c126
5d36
34f6
3d56
e102
6a7e
a815
71f3
89e5
a0cb
2752
5b86
0881
a94e
c515
375d
8bbb
f4ad
6ccc
5204
2aa0
b475
4267
af31
3150
023f
bf15
af5e
69a5
c9e1
034e
58e6
2550
8f4e
3ae1
0157
faa2
6e7a
5879
64d5
bb67
4e2c
7648
5dbe
edb2
41f8
0b3f
340e
5781
a094
62b4
898e
64ee
67e0
dd42
87ba
027c
72b0
b393
3c01
e1ee
5d5d
346f
3425
5b85
fcf7
62b3
3511
2aeb
a3e6
e0f2
5e32
e063
63b9
5703
33de
775f
4b06
7b96
e27d
036d
756d
3445
b102
3e50
2a93
c133
fcd2
081e
3419
4e3c
7610
e702
0f02
f701
5b2f
78e6
0207
cf01
f0b4
1873
3afb
d894
2854
47f1
6429
66f0
67be
39a9
ee0b
0393
3476
9789
764d
9c0f
4a82
f83d
025b
0896
030f
6034
0535
342a
404a
43b8
5d72
4a4b
e1e0
b802
35ca
c801
18cc
e6b5
647d
1530
7d66
1ef5
2be0
146c
7168
34d5
4b1b
43a6
ecb6
7ee6
0173
20d1
b823
0b33
43bf
e0ea
59f5
b4a6
e9f2
016f
c117
2e50
4c99
7642
cfc8
7b97
2862
1502
f9f3
eb8e
51f8
a41e
1201
6e30
9881
644d
2e67
01e2
1c74
01ed
a55b
e163
341c
a5f6
ea81
8972
6ae8
76a7
4752
67a3
6438
2aa6
a9de
63e8
28b8
e1b8
2188
26c3
2851
ecc0
fcca
80b9
9997
0809
f1a4
5db9
74ba
01aa
5ab6
0413
9911
1d39
0314
35cb
8c9d
ba70
9701
2aa9
3a2f
2a9e
be5a
15b9
cad2
b226
7963
4fb3
5cd1
a653
bc50
c11d
09eb
ae30
7896
2008
a641
3959
017c
360e
586c
d84a
ca14
8282
6409
e402
5dfb
938c
745d
1e05
5742
3346
8106
2869
4003
4e60
81dc
7028
c3cb
0164
8e24
e031
17cb
22f0
5d8a
102a
7960
f0de
e872
a023
3804
614d
7a53
540d
641a
f0ba
4ad8
c8f8
820c
e287
704a
2701
640d
da36
d8c8
8945
645e
763d
cb70
e83d
1c50
2f36
c1e9
bc6a
6569
c250
2e4a
8f5d
2a04
614b
3915
1815
b03f
8e50
a839
1a02
02bf
636b
c244
ae02
826e
fcc2
354d
3d4a
b2e0
4630
8fcc
7659
380c
343c
6c33
f34a
ac28
e8a3
614c
0973
c1e0
2547
3ada
3023
3d17
e303
5cbf
e53a
fcc7
0245
65df
42fe
4e29
2284
8efc
3d92
7b6c
49f8
ba14
e9e9
736d
45cb
ec02
d601
3189
b702
eccf
0a2a
6e60
1e0d
0293
6e38
0ec6
4a42
ab70
f1c8
5723
77d4
6c6b
bdff
0296
fea8
4fd9
f432
ef9b
4f6c
64cc
0e04
f35a
02fc
22d0
f034
ac29
b851
1e62
04ed
5d62
5866
6e55
bbaf
6460
0b8b
ec01
4faf
7fee
7479
2f35
df49
6650
9177
e5a6
ac01
b660
6bdd
6e9f
fe94
0e14
e1b9
c89e
4096
e9e3
60b4
7969
e63e
4ab8
e8a5
d75a
2203
8425
0241
ac0b
4dd1
23f0
34b6
fb28
e8ac
0561
3895
841a
43b1
c950
57a3
bb50
1023
77b7
5d82
bb93
586e
5959
56a3
7675
d602
5ab8
34af
be01
78d4
4e66
f29e
7ef1
927e
444a
47a3
7b5d
6e4e
7825
7ce9
7366
5d6e
a5bf
bfb1
fbfe
6035
594b
7dee
60e8
d8ec
6a42
77b1
a65a
3486
7656
4ab1
137c
64e4
62b9
4e09
1e69
4426
c83d
0156
0227
6edd
2602
bf4b
51c8
886c
3748
b51b
7cab
3e8c
7064
346e
3bd8
de35
762d
7663
eced
6251
34aa
04fb
4e67
2879
b3dc
fce7
f148
34d3
600d
556d
51cc
2f58
3548
f03a
af05
fee6
3485
59e1
234d
add1
999e
6a66
0142
65a6
79b5
f1c1
4949
5fdb
b12a
6244
52f2
0320
f002
2d6d
f598
304e
3072
3a93
6972
6e51
ab47
d717
02b2
e944
6153
2fca
981b
6136
b03b
0d7c
af4a
a205
2edb
8f32
a7a8
8e2a
8fff
f26d
5d67
625b
0a66
60ff
c12e
fa6f
e90f
0231
b250
6247
3d69
7b4e
2d4e
caff
3144
d644
4fb6
0c78
22eb
5d66
08c3
a247
a067
5217
76a0
362e
2dac
0977
13c7
82e6
8682
a8f5
2830
3eb9
e062
2aa7
90fd
4555
1ce4
61d0
cdd1
4e0d
614f
e8dd
e9b5
e270
406f
29ec
2922
e912
c6a7
3421
9750
9824
7432
2cc4
b838
640e
3666
f5bf
3b10
5dd4
d3cb
ca02
a285
353a
1076
317b
eb9e
89e8
e302
8ffc
ac57
a202
62d9
4747
27cc
ac4d
cad3
4dd0
b301
3393
c35b
3d47
10fd
827e
58dd
e701
6071
71e1
ade8
c128
1da9
6e45
fae0
365d
d150
637c
44e6
8102
3e84
3d14
e9a4
028e
90a8
f630
8f79
6764
7eb2
cf02
8174
bd97
395b
2e33
63b4
8f6d
19cc
4e05
fd2e
0b3a
c76f
e001
6482
6557
a8bd
3c28
6444
3498
c102
4ea3
ff14
8fb9
7d08
4723
b64a
370f
10fa
0b7f
0375
b439
765c
fcc9
4a9b
285b
34a7
2eb9
cc50
5d4b
3b01
346b
0163
3604
d902
d753
5501
eb16
5a03
e76c
51e1
b165
c05b
1808
60bc
6e33
9c50
6747
f0a3
420c
dd27
34e5
9e74
d0e5
103b
8a67
3e30
8f64
7a17
1f99
906c
5aec
d1da
761d
dd5b
fceb
0914
614e
6149
3ae8
ce02
3720
28b1
bb4b
393a
3ec3
d848
2ace
814f
d04a
b04e
905c
8f1c
14b5
a902
3dfa
f801
48d3
572a
84b5
2aaa
1209
9d02
f9db
3514
dc37
8a7e
9e2a
e74d
2817
cd2e
53cb
f1f7
62ec
5f7f
ecec
b65e
9e02
2815
5ddc
d4d8
be29
67b2
efa2
e6fc
f56d
5d08
34e9
0564
42a0
4d51
28d0
1ee4
b44d
14d1
088e
6ee1
7ef0
347b
5447
7967
8702
9702
aeb8
5650
9150
53af
fd93
4753
ac5c
8f89
803d
3a62
6435
ed67
44c0
641d
7930
6a3d
d451
5c5d
f94f
ab15
5871
c652
212d
c876
beb0
2e28
4aa6
137f
24dd
cbc3
1efc
358f
b825
d123
0412
3645
6214
c1ff
9b02
3918
8f39
83f7
ec97
5a72
e55b
61ec
5441
7036
2c63
64f1
bbb0
2f1a
fc57
62d1
0c25
6108
4e7b
6154
e963
f9cb
0818
2847
f935
3aeb
3944
34d4
9909
b69d
a0d7
7820
716d
a988
25ed
5d6b
4fb5
3360
f404
81aa
c853
65b3
374e
b451
eed4
3ed9
5d2d
d964
12ca
bf42
ad01
61b9
a302
4e49
a46c
6be8
e5fc
3fa0
6496
0aba
7311
59ba
1e98
97f1
15d5
a4ed
b979
c8cd
0287
0a18
5d96
a108
34de
5569
fcce
fb78
2fb9
0ec0
b941
2dbe
b3f0
253e
7d4f
61c8
da49
cdd4
3f30
5d4e
ea16
fc2b
e561
10d1
80be
6ccb
6ce6
764c
392f
4e06
2e02
3017
6e4f
feff
774d
072a
2953
fbb4
7e23
52bf
bf14
5d4f
23a2
48ed
5f63
ad65
8fb1
9820
5dcf
3489
51f1
3e6e
f0bd
6e6b
1eb9
e2b9
34eb
b661
2314
7de6
4d79
137e
e401
02ae
3fd4
fdbf
2858
5d6d
0727
fded
7db3
fabd
515d
3d63
5938
9a50
0197
4510
34d2
1950
449b
9b45
7668
1dc0
2362
373a
bbdb
1f50
5c3e
7c16
a83a
bf7c
b5af
577a
b03c
c802
da1b
171d
b43e
bb20
d102
75cd
30b2
e91d
77ae
7ebc
ef1b
2346
10ee
763c
a1b3
b4c8
d050
67bf
5cfd
83ee
7b0e
34f1
f4bc
0524
4ebd
6411
ddd1
d266
e57d
ad92
01b9
5e55
77c4
63ea
8f7d
f0da
fe65
4896
0d0d
12ee
3557
f896
5df3
8489
b4bf
576c
5d9a
43f5
f066
1b2a
40f0
1b76
bdbe
eab4
c121
389c
343f
c733
58f0
414b
0c3c
3484
0298
bec3
0bc0
422f
2a69
5fc3
e917
422b
35ce
77a7
f5e5
ed6d
017f
6248
d095
c06b
7535
1e3b
fc4a
48b5
baeb
1ed7
e5e5
cc9d
3c6a
3108
a315
6468
827f
7760
4eda
4b44
b48e
64fe
e572
40c0
f114
7b5a
dc5d
e296
557a
a019
34da
360c
9a67
e3fb
6516
8f8d
7289
e560
177c
d7d3
ff5d
34e4
abe9
19dc
a004
7612
eaf0
6679
4a0e
f6a8
4d03
5241
4a48
3b64
db5b
e3e1
01a1
2c5b
3987
022f
c1bd
5810
038b
7b9b
3705
6711
f11d
900e
8f2d
ba53
b8b8
b3f1
15f5
fcd8
54af
c2f0
586d
6e78
0f06
816c
b9d0
9633
029a
1e5d
e2a5
766a
09c5
5d18
9b41
e1e1
76f9
281c
c601
646a
5fe9
e9fa
7635
34e7
4e28
67b8
0936
1e75
04d5
27d3
52f3
f025
7c2a
647c
4763
10bc
3db0
63b3
247d
7ae1
3cc7
f353
e6f5
34cd
bc01
70fa
4f46
512f
04cc
6e6c
e675
2c42
80e6
5d7e
21bf
3a4a
286d
76a3
5d10
3d48
7b16
dad9
235d
ecf5
c07d
1714
2a52
5fc2
2de5
3669
6e32
5a73
c132
42cf
8e1d
9e92
8350
c010
9008
6e31
0827
6ef7
236d
eaef
c202
ec46
a60d
ad7c
284d
3482
08f5
7445
9014
9825
4599
e83c
7c23
7358
a6a0
24ec
5a6b
04d0
ba7a
bd01
cd01
c148
e950
c85d
1535
a110
5da8
a7b9
bfb8
5acf
c11b
6eab
c602
666c
1e3a
388f
a47d
da13
8f04
48cc
6061
5514
80ee
f4d1
e53b
8312
0dca
c11a
7b04
2864
7ea7
7dbb
7a31
6c76
30b3
7865
8f59
38b3
78ac
615f
bd5b
7263
a5d8
7df1
e910
86db
9168
6c8b
3c7a
7954
3751
76f0
c5a1
da73
5de7
d402
5934
7d52
b203
761f
b7b8
8ff5
e62e
8142
2a47
9f01
e95a
c231
ba56
392e
2f70
6a34
4970
0729
0238
5586
584c
ea17
4e2f
af0c
69bd
7fe9
152c
bb4c
6e77
15b5
037f
706b
4c65
d6b6
2d47
f03c
2b7b
7352
ca91
036f
8f78
7a11
d948
5d6a
b43f
2f37
3493
34f4
49ed
5269
a919
da7a
7a03
17c2
3095
66e0
62bd
72bd
26b9
6139
4b9a
6445
9823
335b
4e5e
fc2e
a02d
7b79
f9ea
a1b2
a4e6
3c5b
54d4
c29a
df29
8b7f
7537
126f
62bb
b126
4851
d0db
4e68
82db
5da5
343b
761b
2150
34ac
ac5e
d423
ae50
fe03
bb79
d4e4
b402
1eb8
7eee
a33d
5c4e
387e
640c
c84a
48e6
b53c
4e0c
1e4e
5277
14e5
63da
e70c
f9a4
02a8
f134
672f
01b2
0264
84b9
87e5
7e50
7b5e
4e10
65cf
b4b6
4abf
42d0
d202
56a2
5d29
2be9
4ee7
34f5
cd5b
c1a4
1e7c
a550
4f79
0d46
5d3f
34ae
c6d3
5a91
13e6
66f1
c501
825d
64fc
257c
8c1e
5d34
a1b9
212b
632d
a7b8
4622
5330
8414
6e76
2d38
8799
2842
a250
f2a3
2ec3
8fe6
65a3
b60c
ad6d
337a
d3af
ae84
e5b2
70b1
d97c
80dd
5e48
71ac
fa50
384d
7e7f
764b
e911
362d
2378
ca8d
9376
021f
22fb
d279
f7ff
2176
ddc1
68d0
841e
bbb1
4655
bd8e
bd7c
744b
f102
f3bd
b465
4765
627a
f050
7637
101c
3427
ff81
ba7b
5dcc
947a
66a3
209e
03b9
dc2f
0b6e
29b4
335a
2860
4d6b
7672
af85
765a
3ace
6625
ef93
9db2
2181
f135
912d
2d55
fd39
7578
f5ec
445d
6330
4ed3
0e4e
28a5
f660
ea50
a9da
88e6
096c
e9ea
414d
351f
aea1
152a
1d7d
cdb6
ab2a
f2d2
c702
d30b
5d7a
b7a1
3dc6
23d6
849a
2557
6406
0d86
a195
657e
7503
453e
3617
7b76
85a2
2863
b45b
736e
3e14
4ab6
7fe8
90fb
ff9b
58d1
b805
bb8b
6c4a
ba42
fb6f
0389
1775
0588
fc3b
034c
68e8
69e3
6114
0cfa
390f
0f0d
8750
7414
d230
103f
70ea
253f
5c9e
8f43
c0b4
196e
d153
fc2f
602d
e9b4
a56d
a650
837e
0838
626a
7b06
c118
ef7e
7042
b1b4
7b57
b896
7692
622d
6cce
5961
61e9
764f
615d
3b61
2702
adb6
5fe8
7658
3a8a
a58e
5d73
3a1d
742b
ac4e
f902
6186
704d
5951
6eb0
587f
7b54
c814
347e
b4ec
370c
a631
5a7a
2821
3981
1edf
7a87
e371
e279
7029
a41f
dc65
6288
1a9f
a896
2746
a823
d85a
642e
a246
641e
add9
4e07
7629
ff92
713c
9350
29ca
6553
dcff
1750
e45e
0844
1e91
183c
7921
d23f
ec41
8a50
6ce8
6ec0
1dbc
b06b
2382
8b76
14e4
4a44
4fd0
9a2a
f1b9
e0b5
5e4d
461b
adaf
2872
b959
ecdf
486d
8f8a
db48
e15f
3d03
7ecd
d5c1
dc4d
e47f
2061
16ba
1314
02b5
1f74
3da8
053c
ff5c
db22
6499
e4ba
7636
7842
b272
3592
aa50
2f28
74bb
34f0
6b85
d878
bbe4
f5b6
015c
ff1b
8b5d
e913
f1f4
65e6
72e8
2535
eabd
a115
aea9
6cd2
3d4e
988e
76b7
3549
d4c0
bedb
2853
e3f3
5dc8
991e
7eae
7b56
62e6
dbe3
add8
d8c5
763a
ff9a
3717
6e14
8389
8950
3122
122a
287d
8f61
45a1
69f2
59cc
c013
58ec
596f
412f
6379
7e9c
76b1
a150
0f5c
1e4d
d24e
3747
4d14
5d42
5def
adc6
784a
a347
04cf
5573
9404
f9e3
fc5c
d6d2
fab4
7628
34ce
994c
0909
5dd1
5413
6433
97fc
08d1
bb02
c9ba
c284
76bf
28bd
7744
425d
480d
622f
3896
1464
c633
2803
756c
577c
368c
1ed1
5db8
33ce
01ec
0a3f
34ee
76e8
28b5
938a
02c6
7e2e
ac12
7d42
2b79
0bb8
665a
34df
6352
6e10
5ee6
ae15
b5ed
49c1
6347
34dd
fe08
15b4
9a7e
cb02
2944
02b1
e23d
3cc6
5257
0299
b614
a095
7b9e
b07d
0966
e150
c043
a851
3acc
c6d9
31b3
64ba
bfff
2a4f
eedd
8b1d
66ec
a8a1
5e59
72e0
25ca
e5e7
ad7d
ce43
67ba
02a2
0c11
37ff
4041
642b
a46d
5778
7b51
f314
6407
65ff
7ee8
fcaf
ae21
5d1d
4a31
41e1
c3c4
8437
75cf
0d0c
7b75
2816
1ba5
c9f6
b6c3
fffd
c025
d0e4
2aea
9bcf
bcb9
3a08
d701
a825
2834
6eb9
5c4f
5abf
0911
f631
8f3e
5d8e
0b76
edcf
64f9
eded
1e03
4d15
b039
615b
4104
01c6
bfa0
7b74
742f
0b67
7eef
1d46
62b0
3e15
40f9
ef9d
60b9
2924
5d89
2710
d641
fb4f
7864
6105
644c
1439
3096
64da
c701
371b
ac92
add5
8c14
f33c
6a6e
5d4d
9b43
e978
14f5
2096
6ecd
8f42
ef50
4076
2b60
a9c8
7769
1f08
7031
5a5e
427d
626e
5163
ba3d
a1b4
6c39
bf43
536a
19e3
adbf
fae9
83e6
b57c
61ff
a9c9
7859
0813
8f47
7004
0876
8e33
4d48
4aff
4b9b
35b9
4d4e
80d5
7b77
af60
68c0
97e5
60c0
5ea3
dca0
af50
9250
63ff
eaf2
77f9
d4fd
2a4e
7b05
01ce
62c1
038a
5974
76a8
fcb9
283d
4db9
4866
eae6
e502
9822
3615
4e0b
784d
95b9
0171
3cd1
17d3
ef44
63bb
909e
76e7
44c8
433f
2d7d
f150
bdc1
65b7
d6d3
b615
ad8e
70bd
97ec
fdf3
2b4a
9798
2f2f
c7d0
f1f5
ea87
6774
d9ec
ad46
309c
7161
e67d
ba77
bd70
47ff
dc47
6a4b
a833
334e
d658
6069
015f
b6b0
d6d1
fb8a
752a
5ee8
5d79
6235
67b0
9581
7b8e
7639
394b
64dd
2e61
5db5
80e8
e8db
90b9
ecc6
5d5e
d841
be4a
373d
48c8
c0d3
ae29
4d47
bf5a
3713
284b
c401
28e6
1f09
e135
3494
0148
bf02
1306
8bed
26fa
08b9
7ebe
0bd5
162a
41d4
8e5d
b20c
67b1
9e01
4969
d9e0
7d5d
bdea
2f4c
adc1
370d
5333
5e9c
e82d
3703
f8c8
f315
4841
f6e6
f3f6
1ee6
47d2
6270
7a2f
2bda
40db
5d58
8fed
6456
5d2b
af5f
4b71
c427
3c29
376d
42bd
42b0
6452
47d0
0a14
7154
df58
433e
47ae
5c2e
74bc
6779
733a
014a
8250
5d35
ea79
635d
8377
bf28
34db
de01
b57d
6408
0168
6896
7862
8fec
a62d
01dd
0a67
1575
3495
0b50
bb60
62ab
c096
906e
1977
444e
206e
57a9
0835
0abb
6203
233d
f6a1
5153
095b
5d70
b7b9
cb84
7bff
3d5e
7847
5fc1
e29e
d2af
5dd9
7617
ffcb
6ed9
ffc0
e9c0
b905
ff34
804d
6273
5964
4147
2ae1
ffe5
d070
7651
d8b4
7621
e5ba
785d
6128
d949
1e33
35c7
de02
ce5a
f2fc
5e22
343e
c7ae
87fc
c7d9
7be7
3b14
6217
204d
442d
4204
7171
9964
a8a8
357a
5570
db9a
4e04
6c7f
8f4d
735f
7cd1
8f65
44ec
e7ff
3a55
bea8
4d28
1435
765e
bfa1
6934
b449
b652
280f
02d1
766b
5362
c402
f8d4
42d9
5e4e
7674
8850
83f6
13b9
c85a
c161
cb0d
254b
a11c
da1c
642f
e162
51f9
60e0
5939
1e8d
5afc
4d5d
4e58
153c
b5ec
686a
3d0b
7e5d
46df
6644
fca8
4757
a808
1650
6a8a
cb42
5ab9
dc7d
8f41
63bd
b4ed
d1db
0514
7bb9
817a
40da
7666
b059
5f59
1eb5
ff08
d7d2
2d18
5da3
ab50
3d70
ca73
302d
496c
6258
5331
bdd8
f279
02ac
029d
42c6
4458
5752
ad57
64e7
4942
5aff
29d1
6604
77ce
5430
eddf
0153
feb9
663a
5a49
a34e
0a20
bf75
7971
2293
ff05
e6d1
5f16
7349
e4c7
5fd1
37ca
f232
4a4a
486c
3cdd
1a50
9b46
eb5a
02a0
b2bd
0a0b
d96d
7545
3342
37c2
7645
a194
5d5a
75ab
fe7d
fe51
5cae
0c04
4aae
d551
61e1
2721
3ae0
6227
030e
81e9
8b09
d950
43b6
5d51
760d
5d61
e532
ff7a
ef77
1896
a37c
f379
594d
44aa
aa0c
8f1a
282c
6ad3
1453
ef45
a34d
6e5d
60e9
27da
d808
b9b4
6e6d
a51b
b601
5168
b4a0
2ce1
0f03
472a
7b58
b295
6ab4
444c
8f60
ecba
3491
ed66
7ea3
1db2
847d
ff94
a604
123a
8f44
31a8
d149
c10f
69dd
e916
76b8
2a45
7944
f541
ffb9
8f17
936d
6523
4fb4
af84
a45d
88d1
6289
4eb9
6417
e725
289c
e216
5d6f
b65c
44d8
096f
24d1
9e33
5337
0294
2260
ecbe
86bb
63a4
020d
2247
1715
2adb
b779
765f
6e47
f242
495d
fe24
4c49
a5d1
e350
7159
38d1
221f
dc73
3722
3d5d
593a
01c5
45b9
7ea8
b924
be02
1ecf
e5bf
b4ca
e179
2831
371a
71b9
7447
0520
25ff
aa3f
5874
f496
486e
6487
6642
4a38
7b09
b824
3d24
6e96
5de3
8733
aea0
4e25
a1b8
d2f1
67e8
7b59
bcd1
5d91
12e6
760e
5dab
0869
5998
1b6f
19e2
27b9
b20d
2857
a114
23e1
df01
6362
4961
b314
f21d
766c
eeee
4848
41cd
e297
e22e
3dea
4539
75a2
1214
a0ba
5da2
fdc1
4189
c131
76e6
5d64
6486
d362
dc14
1972
8f3b
7eb1
dd08
7b7d
6658
02f0
6eb2
f287
92f0
9529
37d3
9950
618a
784e
6744
3957
6eb7
e0bd
23c7
60fb
9414
4214
300e
202f
e42b
e45a
6ee2
8019
734e
6281
82e5
6567
524d
ac1b
2dfc
40d1
c502
f3ef
3d7d
34ed
db1b
015a
24fa
58d3
e2a0
8876
3a0d
4cd1
28b0
eaf9
e5ec
16b8
78d7
3664
413d
5d71
af5b
5d03
fe61
5d43
9fbe
14ff
9687
4e5f
a51f
0216
643c
40ec
294a
8f6b
5d65
63c8
5d5c
d8ed
8814
c4a9
0ad9
b350
3558
d86d
d66d
5d04
57fd
b918
c8ef
3426
04fc
9dea
c8d1
1e23
6143
601d
672d
6484
64d2
dc0c
8f1e
4d6d
dc6d
6eba
7b6b
3648
47a2
66af
d896
78b9
330d
735d
5da6
ff62
e959
b6da
9bfe
cc27
23e0
905f
f702
627c
2373
62bf
fff8
57c1
2ada
4a59
8b14
be28
4114
76ff
d373
2914
a643
bdaf
f941
4a11
af97
df14
76d1
7f50
7e7d
63a3
2261
76ba
d8e8
8974
4e0e
1db4
d853
cb19
5ca0
2395
fde6
62c3
f67d
70e8
48c4
f3e9
d9e8
963b
e014
37b9
3b5a
81e8
c2f2
624c
9e42
3988
657f
2655
747e
7727
52be
8535
4ee6
6044
1bf2
f1d0
2223
359f
dcd1
dc66
65fe
e6fe
5d4c
b44f
408d
1e04
52b0
6063
5f3d
a89c
7d7d
7b6f
7c5d
e97d
9abb
235a
bb0d
0bb9
82a9
76a1
d748
0c26
d2a1
7e30
fc4d
4fe4
1937
70f2
991f
a4dd
0154
22f2
3578
64fd
b109
af7b
7da2
7b9a
6b4b
b8d0
5f51
690d
89e9
9902
a286
284f
b150
7532
2214
4c75
d23e
6849
23d1
6928
c9f1
2a06
bf30
809f
e1ac
5762
4e26
ba79
0963
1d63
512d
1be6
0356
ac50
b602
7d1d
09b9
89ea
42b1
8f30
2871
a258
5c63
64c8
d3b8
5dc0
cc63
5124
21c4
e8cb
65b9
42b9
16bb
60e1
cdb7
b05b
6e03
8e56
d245
7673
7db6
ea3d
79bc
b0b9
6ae6
d1c1
7db9
d401
d9f9
7670
5d38
9fe3
c10d
5169
c262
be14
42d8
20ff
7da3
e6be
285a
2809
647a
19f2
aa08
b04a
e079
e2ac
5896
675c
800f
a51e
10c1
5c26
1fff
bf50
637d
7747
2bf2
5d09
7b1e
dcfb
1718
fdbe
ea7b
634d
3998
8f51
8f3c
8f10
fd7e
a8ca
8b5e
621d
7243
7dff
3d9e
5f26
ffd1
4d88
2a50
2d14
8911
1e51
b5cb
ecaf
8630
3ca5
35c9
ed16
a429
64f6
234a
78ff
b448
224e
3587
5d8d
23de
7844
a350
4b09
d30d
b5e9
e8da
434c
485c
80fc
65b6
59b2
e1e9
cdc1
0391
394e
62a0
628d
6489
02cc
6528
cd88
ea65
732f
4de6
3629
5e6d
a24e
355a
5414
0b6f
62b2
cb50
2d56
f9b4
1ef4
d242
016b
b2fa
0f04
c113
3024
865d
71fa
be76
62fa
fa5a
4b91
492f
6efe
a5c6
ec32
c21c
6e08
421d
1b50
7b94
21a8
7615
625c
2ac7
1e1f
1ec7
1b67
3ac7
236c
bbc0
7571
74df
e8ec
8896
aafb
6481
fe60
4d7d
941f
3542
7bfa
6398
6428
01c9
3e05
4a5b
feb8
8eca
17b6
6c2d
a85b
3779
6405
7b5f
a57d
aa47
29d0
f0e6
35c8
5373
c15d
a74d
39a8
04bc
2c47
7025
1b17
2b42
5c28
48f1
6703
9011
bb5d
6291
e353
1e60
a8e6
5ddb
62bc
fe9b
5c3d
c12f
8dcb
4b0d
62d0
1f98
5d39
894c
f9bd
2e5a
0c08
015b
1e44
f3af
814b
bd9e
709a
19e6
d8c9
66ae
8fd9
f503
1e7d
1e47
6eaf
fd57
096d
7861
5d24
09e6
840d
0864
5525
c8f1
ed2b
6419
7d14
9818
0587
2d2e
6151
ffe6
1415
7b14
5ad0
02b4
fe55
e5a7
0d94
6628
17ec
f205
434f
304a
bdbf
7e9e
efd4
351e
3ea0
0d34
ad9e
817f
a189
da44
407e
16e7
02a5
6c4f
0310
b94e
4d1a
2376
e096
5d56
42b8
1973
6b20
5e61
0396
42ae
f0b1
6168
5ca7
f37a
86ba
2345
bbfa
e915
2da6
0937
c059
53f3
c3f2
0ec2
72f9
8fa1
039a
4943
c968
c024
7555
8f5b
5658
3061
fd65
e33d
c03d
ca62
69d0
5db0
0159
7d5c
f9fa
0a26
de5a
f5af
604e
74ed
8f1f
cd30
2833
5f58
2a7b
6104
66b8
6c47
5d77
6a7d
760b
1608
1fe5
3dd9
7ddb
05b1
62ff
6249
2f30
69f3
a1ca
5dc4
5209
bfda
5fff
2d5d
6e5f
7b73
abf0
b919
dc5b
7344
621b
b6d3
fda6
18fd
a911
f063
e985
364a
620c
5978
842c
41cc
d9f1
596c
6b61
02a3
0705
34dc
f492
3de3
01e5
917e
487c
ed28
1c6c
573d
63e6
7941
7828
a4bf
e6d7
5a7d
93a2
3d68
d096
b256
d8f9
2db9
3379
31e5
5f5d
5c6d
3a49
63ab
8fd1
17b4
5dd6
4dc7
7c46
f9d0
7d7f
4ea2
7244
3d1f
76bb
7b4d
2c56
f74e
4124
51dd
feb0
3da6
5f7e
ed26
b12d
0814
ccb6
8f3f
f34e
64e2
0d14
3104
f9b9
9851
ecd7
4710
5dc7
c6a3
a8a4
b7a8
3fa1
fc3a
8f03
0c0d
e92d
fc65
92b6
64ca
1d79
0976
5d53
c2f1
ecab
bfb0
fdff
c896
c851
2235
283c
4462
6e4c
82e9
7678
21aa
bece
1cdb
8c1d
1bb8
5f0f
314e
a428
63dd
1ae8
3611
fe30
1e4c
e23c
48ff
c6e8
17ba
6cc7
a7ef
cac0
b104
42a6
642c
676d
7928
ecb3
094d
6cb6
b3cc
628c
2742
6668
20d4
5914
f0fa
4167
6120
4779
0879
e742
7371
37d0
52a1
a548
dc1e
61b4
4968
c119
daf2
8fe9
dfff
5ad9
1b6e
0952
4761
9a77
51c7
2055
65af
7fe4
5c13
e44f
662e
7851
9d6d
6415
bbfc
755d
5162
20e6
6c67
1e30
ea5b
e2e1
a4b6
e6e7
9896
eea3
7625
d864
8f05
2848
6ab9
102d
5d1a
5e42
a58f
a1a4
524b
80bc
5c64
5861
3a78
94d1
0f9d
5dbc
7620
0c63
a92d
ff7e
1233
b2e7
5d46
c150
bff9
9175
7a96
136e
fee9
1e4a
7e61
4d98
2832
a1e6
0a74
b815
b844
7cb7
89d4
3862
8f0f
7652
b817
ef7f
3965
3114
1e88
161d
04e8
b45a
a096
6a6b
6cfd
a8ba
f83c
ee7e
039d
7b78
c7c9
1c35
fef8
2f43
73d3
1cd1
4e18
956a
6cd4
8a77
c89d
51d4
64d0
0534
5d8b
3064
ed14
a9ee
d8a4
28a4
44d0
ed47
48ef
3a60
fe6d
3881
726c
1606
9076
49ba
6159
6aed
b1a4
455d
6284
ed91
537a
04f3
6cc1
804c
094c
6577
7210
4714
2daf
7d4e
89d1
8f66
29fb
4c08
b22c
0381
f9a5
1e3d
e2ff
fcae
8f19
cb79
7d2b
3721
fe5d
8fbb
1814
7e77
4b10
cd7d
2372
71f1
bbb9
e243
660d
4d3d
71eb
d231
704e
24e6
5dfd
8dd2
384c
64a2
f27d
4a32
c9ff
555d
6360
07c0
705d
f3f9
62b7
3e85
26da
0ded
f688
8f73
716a
a4ec
0dfb
a6d0
5d97
237d
694a
63d0
7d44
3728
7056
464b
f1e2
bdc8
e359
f522
7b71
8b44
7eba
a37b
3dec
5d57
b981
029b
5568
de3d
f565
3593
0cd1
27b3
425f
a62e
42ec
283f
265a
412d
5659
20d9
f761
c5d0
103a
f02c
47c3
6246
eca2
ff69
0351
79ea
25af
efb2
76a2
4f5e
18d1
02a4
782c
84e6
4635
2a4d
78e8
1250
8f72
6422
a089
5fb9
6848
76ef
7897
7b99
2d09
0849
01f0
0a33
2878
8b7c
315d
5d1b
8919
d8d1
e7e0
3647
1e48
4395
a5e3
0b8c
675a
f92d
0212
bf31
037d
6a70
51c9
0c3e
69c1
e965
a0e5
436c
a4a8
36c0
2f4b
b284
91e7
035e
1e2b
48b4
b156
230d
2918
b6ca
74b2
312a
e0e3
35d0
6948
6488
e208
80bd
235f
98d1
617a
2d4d
3775
b096
238c
83ef
02ab
5e36
75d4
464a
894d
2135
9394
e62f
8f11
a09c
ecb9
3966
fe19
f6f0
2d08
315a
465a
5fe6
e8eb
bb42
dc2e
7646
46d9
4028
42b7
636a
69e9
63c3
3671
ba50
787d
d214
425b
51a4
1c3c
8f0c
840b
655d
3716
4d29
70f1
02a9
de43
40c1
5e14
7e4d
feca
1e5f
7044
603c
3d62
3a76
b0ca
37e2
be04
7557
5fd6
7296
c122
b255
36d2
c569
667f
6ca5
5c47
b750
180c
c7b9
ac47
fa7c
d079
102e
10e7
6223
4d44
64a6
767a
3d16
b4a9
033d
47a1
ec04
1795
3ad9
23ce
84d1
6222
fef0
7613
314c
8f6c
ba60
1366
4764
be50
4d76
a3d6
c9cd
48dd
9d94
374a
2384
5ad8
1bb9
e1fa
62fb
7606
8d46
f2ac
f5fd
8613
8973
afe6
8464
60f5
843d
ff03
01f9
5f3c
8872
6738
02ed
28ec
5dfe
6425
fc39
b3d2
5d6c
bf39
5aa8
4fcf
6356
4e1d
ad97
6344
aa24
7dab
7b52
d272
5dbd
7039
c843
71e0
ed2e
62d8
69e6
646b
3af3
4454
81cc
bbcb
f760
554e
6133
77cd
aa5c
5251
5ffb
6af5
c4be
5361
3644
7429
8143
713a
6296
552f
8f16
eae9
3d18
3d1b
7f3c
ff7f
c12c
3914
aec1
4f4e
7c8b
08c0
d702
6e06
b925
5dea
6278
3a46
2018
c82d
e8c0
84e8
bd65
1ebb
5222
b21c
5dbb
7b72
fad3
7b42
5253
1e0c
7e17
2582
dda0
a491
cf58
27a1
c589
6633
f848
5864
6623
0704
3778
3718
99e6
e8d9
6ec4
65ee
c2de
3ed3
7a4a
623a
8b7d
444f
da62
675d
905d
a6db
5d4a
bbc6
51e9
c49b
a9c7
dc1d
e6b8
2920
1047
ad75
7165
3a03
4aa0
17d1
7b88
9391
4079
87f5
5c49
87bb
74c6
01d4
751d
51b5
382a
20c4
44ff
bd63
5504
083d
12ef
4ad0
3d61
a9b9
1e61
3f0c
2807
7576
c120
2ae0
032d
66f9
f4ee
df02
47aa
34ef
f5be
3f31
29d2
8981
3505
3a68
0d4e
90ed
eaa1
a4c9
e9b1
8e2e
35a9
ba48
097e
c116
3585
381e
cd99
2a4c
182c
5ddf
5c62
d3f7
1b77
23cb
e4c1
80fd
42df
ccd1
adc7
6947
d86c
014b
0586
61c3
fee8
522e
c4b2
721e
ff47
ba5a
2650
0c38
7139
07c1
e4bb
8b3d
0c79
a33c
c1f1
e217
a618
5170
fd7d
4935
54ea
0362
d134
7866
fd2f
8f22
69b9
4e1f
ff8f
a616
64eb
0bb3
0318
fc37
6841
781d
4d0d
074d
62ce
39b2
0dfd
13ee
5a48
4166
80a9
5533
1d1e
e8fc
8f36
5aa6
7068
1967
527a
f52e
ab05
5f6d
4bec
8b61
b542
d941
095f
353f
9b4d
7d1a
a512
3c4b
7653
63ec
d502
6e42
0e63
c1b0
c7cb
62c2
4c4e
3d3d
ff28
3f7c
7047
64d4
605c
7d5e
82f2
e56d
59b3
030b
7b3d
edae
c0a8
8d4f
694d
4161
f461
3d13
e6cf
286a
6413
a6f9
683d
c130
fb97
904e
446d
b53e
7dcc
f2ea
7609
c7aa
7021
80a8
9663
2652
f204
2da8
363d
d350
7351
1424
64fa
0199
c26a
7f45
ee97
aacc
04f5
71d9
ce85
8e7b
649a
ff55
47da
bde2
62e9
c5a9
2876
bdb6
3556
07d4
74d1
8b0d
3fb1
5632
0c48
214c
6a6d
3be2
6439
edfd
dc2d
376a
8817
4e0f
c643
a420
65fc
4e1e
7604
3d12
5a99
8488
76b9
64b0
b121
64e9
a909
e9e0
5ed6
35d3
0507
19ea
4e1a
3844
7dd1
4868
355e
6ef8
9406
be31
4170
6152
6003
b3e0
6ec5
4e5c
8a86
da65
9831
8f71
e9d0
51bd
5cd7
a385
7408
8429
6418
e9c1
5ea2
6cbb
6753
021b
1e42
1e31
ca7a
8459
63d6
4329
59e6
dbd3
0aec
365a
0b77
ba5f
5d13
2155
c012
23b9
e26b
3760
4e1b
5e79
2049
6830
5479
776d
841c
46a4
5da1
237c
8f62
aa0f
359e
df7d
8b42
bbe3
7ea0
0d7d
7bed
9429
6944
d004
c027
4b58
b929
8f34
77a0
29bb
792d
1269
2c4e
6ee5
7020
673d
d64a
ad93
19eb
6004
faab
352d
e2bc
9cb9
5c61
e5fd
3d31
ba6b
6937
ae1c
622a
4e27
85cb
8e72
d520
a0b3
57df
4fb1
474b
f1ea
74e7
692f
ad03
a3f0
3019
6e6a
e964
3759
b414
f297
21b3
3ad1
9e1d
6177
2f53
3a63
24e3
3729
ff12
3c03
1893
3a92
1fcf
4a03
5242
487e
7438
612c
642a
6e23
422d
8f24
9937
eb43
3082
fb47
7b4f
5949
7ee0
0dfa
5d59
e6d9
4d89
3d46
ae5b
b442
4e20
f3b6
f371
765b
8552
1d5d
c9f7
7e31
f0d1
8108
1709
b92d
b26b
f7a0
2868
7574
290c
2819
7bcb
a9f8
729e
6c3d
8f35
fa81
ff56
48e0
19c5
54d1
65b0
36b0
46aa
5a62
f7f9
de81
4e17
0d16
8bff
1723
200c
1e0b
6cff
a8a5
5976
e970
88e2
04ba
923a
5dd5
597c
e953
c1e1
8430
f5ba
9386
c748
6459
c83b
e28e
2de6
65fd
e4ff
9039
58e4
af61
945d
3d38
3a16
6c5d
3ec2
6677
6204
5d95
3371
23d2
e962
8f5f
2c35
f38c
052c
5eff
7e60
8a66
3bea
f731
3afe
f85d
4dc1
d0da
886d
4751
4211
629c
f106
587d
3756
4d55
6298
ff2d
62af
520d
64bd
0a7f
4a5a
8f7f
283a
6471
a3e1
fd14
7db7
3599
725a
eeba
27a2
6996
bbef
5d68
6ce5
fd5d
6276
14e6
76e0
4a1a
7b55
361d
c06e
652c
a239
a1ba
616f
361b
6286
7f75
d758
fab2
57ff
5d8c
7434
1c1d
42e6
0379
746d
7fe3
d505
fdfd
3af0
f55d
83cc
63e0
3773
038c
633c
7d64
64ab
bbfd
d0a5
0e26
01cf
1ecc
474e
bd59
4549
7a4e
6732
8f5a
4509
012f
7d7e
7b7a
475d
6260
1d7b
2d6c
761c
2811
9aba
8651
fb10
61f8
f0fb
9e89
ad6c
8403
d9f0
b1b3
9017
4722
5766
3d33
edd7
2d95
8f38
7cd7
5a6a
257d
b512
8b51
5d1e
cb09
9236
2852
d38b
dd47
e942
6111
e021
6314
2823
b017
648a
736c
a957
62ea
4d37
ebe6
a0c4
88fa
8f4c
3107
7b6a
6659
23f9
8f21
4459
20e4
0360
305b
49e6
19fa
3772
420d
dfd9
ea96
61e6
485b
577b
12bd
1e35
67dc
a4d2
f1d8
ff82
c063
f7ce
3776
4762
63d1
8444
301e
4135
6391
68f6
73c0
7bc8
5c72
3c5a
5d17
7444
5db4
4ab0
5aae
01c7
5f48
fed1
f2f1
c151
73e1
0258
8fda
684c
8749
985d
0539
8eb9
3815
2377
1ae1
bdd9
28f5
8b75
4d63
1324
e4d1
5dbf
b82d
7b2d
1de6
ff72
9f88
fd96
f108
406c
4f6b
5fec
6410
d604
7be6
908f
61d8
6bd3
2c34
287a
5a67
8124
3768
d312
4074
b020
377d
fe10
9268
17e4
4dd8
05ac
3d9f
7579
df48
8810
7b41
9097
49eb
5de9
9b3a
6c4d
774c
92ea
88fe
26eb
c9cc
24cb
5da7
5de5
6771
7714
792c
1e79
69ae
a9a5
7dae
75c1
8614
8f58
bcc2
6e1d
4d32
b133
1df7
6412
7089
1e5b
8f7a
a0b2
5d11
f1ee
18f3
9ef5
e2b3
4134
db82
2c2d
a503
a2d7
40b9
64ea
4465
d06d
09dd
a928
6614
7873
5966
60a6
99fa
a8da
ecc7
aa4d
d34c
014f
0e05
1e53
2eec
6742
d259
4e5b
e128
6599
f47f
1452
66e6
284a
4869
47cf
1eca
3d8f
7d2d
6213
61bc
fefe
215b
94db
0d3d
1d30
8f2b
7654
7dd0
de59
6226
bb6a
61c9
d645
8f12
310c
972b
0a1b
fdb6
8e23
a824
057c
e2a9
786b
f83f
086c
ff75
7a30
d0b5
1f06
8fcf
58c0
222e
3cb0
3715
3dd8
2234
696b
808f
47ec
ce79
f2da
617b
48d4
5dd3
79b9
0211
1e2e
73d2
8b10
b46d
dd09
965f
9656
2614
81f5
1259
5eb9
1abe
415a
98e2
a6b1
51a5
5d81
3a33
7821
f820
795a
537c
0d6b
7b0d
b72c
65ed
febd
2810
2826
26ea
80a7
6220
7745
a549
e9b9
4ed1
f13d
ed2d
3167
030d
8989
7b1d
ea6d
30d1
c83f
3053
f419
c209
ff65
40e4
ea6b
9314
6e5a
8f37
5d45
10cf
2d3f
2cd1
3aef
2366
28a8
59e4
0a2b
8cd1
b011
fb1b
02aa
0d31
2430
9f50
142d
611d
60d3
0887
52c0
e8b9
ca50
2465
4944
64d9
faa4
fffb
53b1
b008
10fe
736b
a6a9
4f06
5a92
a492
f1ef
42c8
8f29
6957
71d1
beff
62e1
3344
214e
5ab0
1835
6268
7f4d
64ae
dd2a
5dc1
915d
0352
a9ef
04bf
f3b3
2b71
0b0c
8f69
6620
bd13
76cf
6458
029c
c2e6
6e46
52c2
36b1
b88f
620b
1ed6
69e1
fb86
3954
4809
ecfe
425c
412b
4c6f
4b13
e8a4
2d98
a09f
63b2
bb29
d4b7
0bb4
2e95
e7bf
5d75
485a
f6e9
4a6b
14bc
633a
013b
02a1
801a
7d3d
7041
ff95
8fb5
5daf
fa6b
173a
bb86
d6e6
b54b
8f95
9a1f
ffcf
3ae3
685f
9019
c159
1df8
3719
7731
b28c
6c9a
5da4
654d
753b
563a
0306
4dfc
09d5
2d0d
69a4
1cf5
ee44
5a82
5d69
8be9
6954
a906
0347
09ff
3758
763e
af1a
371e
bdd1
c598
8f4f
17fc
ae28
0d1d
5dfc
4d4d
2f5a
2a0d
8a4a
ef4d
9396
93a5
35ff
cfff
9166
4dec
65d7
7b7f
58ed
170d
6c6a
6e2b
62f5
bb1c
7166
dc17
78a5
983a
75ba
7619
91b9
5d0e
1d6b
feed
5438
848d
8889
7564
4eaa
25a6
0382
7d5f
36d0
3519
e26d
b650
baa5
7a49
4864
7a6b
b7ca
a417
4ca6
a0e6
648c
f7a8
0897
5d85
ada8
7348
8f31
7d79
c841
6157
62f8
b27b
8f94
0395
7626
3af4
358c
e203
76bd
7189
faac
21c9
105d
8225
617d
71b2
63ac
80ff
376c
62db
7fd5
5527
4c09
0d8c
c15a
23f1
a90c
fd1a
1067
4c44
5a9a
704c
889f
742e
5f62
4853
60f1
7938
83e8
1e63
da38
7832
d589
ed0d
75ed
6e3d
23bc
79fa
ee9b
db9b
f296
5878
09b8
e25d
2381
bd7d
4c69
ddd8
35c6
c0d1
5854
e803
2951
3767
dbce
12bc
ec3b
3d0d
433d
4eff
4d38
2b39
3d49
5a9b
8b4d
c949
05ff
801d
1e9d
a8b2
ab14
6e89
7d6d
1a2a
4433
6349
f70d
76aa
b1bd
8f56
8ce5
9f9e
e6ff
ad4e
3725
77ed
0fb9
cd3e
d048
79a1
7d67
ca08
444d
1f75
6441
1e12
2d45
65c6
423d
3575
8f7b
c11c
3af6
ae85
6b67
3552
59c8
5d15
625f
22c6
2d7c
fa43
1fec
621a
5e18
3c12
5db1
7d88
fc2a
145d
290d
27fb
5de4
6294
0c49
c115
bf53
4713
64c3
c514
4dff
9a6e
6449
8909
d916
dc0d
7059
5d93
3866
172b
a139
287e
546e
eae1
8f28
643b
42e0
620f
7b44
b9b8
d06c
3b09
a914
6e3b
9917
fa3d
bb9f
2069
0141
2c36
287c
610c
8517
8420
f43a
76df
9d37
2867
81ec
7ccf
e576
5d41
3708
3126
68c8
0206
2311
df5f
2b5a
81ff
8f2c
2351
7bfb
c26c
f582
574d
fa79
eb6d
3bfb
2e53
52d9
a5ed
e5af
bb2f
f825
64f0
73f9
085d
62f3
ff24
103e
d7c5
245a
b7e8
6a55
0364
29d5
e8cf
62a8
b6a0
5d32
7841
39bd
1ffc
cc5d
6c03
6424
2df7
4d56
2c38
53b0
49dc
28df
64c1
71a9
e98d
fffc
43fc
6598
5d49
5dd7
fe6f
5cb9
5c48
b032
d85d
145c
7bf8
a37a
786c
8ffe
6506
c8cc
ff76
b6b3
8875
84e9
9648
c508
f828
6051
fee0
5f15
813e
23d9
3a17
289d
80a1
b5c9
6a4e
8b47
3a2e
c2c4
5e51
3d4d
76e5
035f
5df7
45c8
5e1a
8f48
48c9
6103
69d8
0a77
1e96
3a96
fb8e
37c1
5dae
b833
7b95
a9ff
3a0c
0873
b8b3
8b79
61cd
2330
8418
72c0
339a
ad8f
4d3e
762c
7253
3ed8
0d74
ff5a
de7e
8f23
d15b
02a7
6451
2317
840c
f928
6e18
8564
5d88
816d
a5b9
e8fe
3049
98fa
ba4a
70fe
986d
7563
92b3
5d98
2b9d
583a
9b2b
a08c
b4d9
21b8
65bb
7f7d
8873
08f2
526a
80fe
41f9
fb17
5c79
8f1b
eaac
62f9
0344
035d
3a09
3609
6e27
5ca8
907e
546d
8b6d
372b
6e28
1ec1
8f46
5a32
7048
fc7d
615a
64a3
7696
e0d1
8794
ffed
3755
42d1
62a7
3dff
782e
d8e6
de53
1e2d
5d94
1879
8f68
c296
62fe
f5ed
6145
36b5
e3b2
7b7b
8b08
fe3d
2528
5df6
28c6
6abd
6378
2d5e
643f
fe31
956d
f3b1
ed2f
59c4
692d
d6c1
04d6
c305
63d5
6541
0552
f5bb
1d84
d87c
6c2e
7f07
acd1
6945
4d67
455c
6ec7
cc08
6879
3ae7
85b9
e4ec
b303
5614
844a
0b14
641f
26c2
5d05
4ac3
f82c
5dc9
13f6
3777
4a4e
42ff
dc4e
2d49
3de8
2dbf
53da
dd1b
5e60
8514
d56c
0917
605d
fea0
1eb0
8603
5d9e
1ae9
64a8
898f
4a36
8f57
1dcb
635b
962b
9ef9
7871
5a64
476d
5d55
1e4b
5d0b
95d3
3d1e
8ffb
8624
693b
02c9
fe6b
2d99
7872
24ae
67c4
6508
1e0e
e214
7135
916e
fbe8
5cb3
613b
5824
7810
ffc8
361a
6e7c
95fb
611c
ed1d
84ea
83c2
bee0
1e6c
b292
ff91
c848
0361
c0b5
b55a
033a
5cd6
584d
e025
59cb
9b23
66e9
44b7
4dc0
44df
01a5
aa67
64f5
62e0
1e10
ca86
5ae6
c451
623b
5dac
8b4e
2044
6495
7d63
64fb
77a8
99f5
3d8e
1a3b
5d23
61ed
2916
3723
7d57
5fa1
6b79
8b66
02c8
8f18
d04e
69ec
8864
52fa
0f4d
0181
5e45
13bd
b15b
1733
ede6
2dcb
083a
01b7
4e11
15a1
53d2
bbe7
aa06
e955
6552
7ebf
c14b
bb27
9ff4
6efc
7c9a
7d65
b3e1
1e56
ea7e
d70f
e02d
376b
c7d8
9223
212f
b44a
2d28
700d
bb8a
e858
0309
091e
0d5c
1d51
b404
787f
584b
88a5
2add
691d
a9ed
f5ae
3db4
8a43
613f
5897
409d
4e21
2b14
35cf
664d
bd6c
5e03
b28a
5c4c
4d6f
3110
8b54
9c14
1e39
7d99
b015
f163
08e2
7a52
0d60
bbdf
4130
4cbf
4d33
4303
fe4d
1d1f
740d
7738
6ed1
5ea8
0ddf
2904
0143
62c7
55b7
334a
3d2d
e124
140c
7e96
7d76
3a35
0997
e2a7
fb9e
735b
6e2c
0e1b
0e5c
8a1d
0de6
64f7
7403
434a
f036
5d25
5398
8359
b0d9
e20e
ba75
7a70
191a
44f5
527f
76ae
8f92
6595
624f
5ea9
3eaa
d3b0
16f3
d04b
7fe6
ecc1
5e68
4a55
8f96
53bb
5458
1e92
0f41
5d1f
1706
7ce8
2835
a628
6914
fba9
fc36
cb78
7032
7bda
404b
194c
5ffe
6210
8f8c
4963
645c
da59
1ed0
7b0f
39de
ffe4
5a04
b944
6e52
2374
c8ff
1976
0328
e8a8
e7b2
889e
40ff
c4af
fe0b
f0ff
5dc6
f34d
74e8
682d
48e4
dc21
fc22
5daa
8d3d
e060
5ded
2846
d870
7b98
0193
dd37
2f61
621f
ec14
2843
785a
68ec
743d
3b7a
4514
287f
3745
4861
7be1
8626
5d19
8b07
8f8f
758a
d437
122b
5a42
44fd
eb53
e103
364e
0566
2198
e835
47d1
e3f5
bb7b
7eed
ff4e
3a36
38ab
1c29
f5b9
f062
3af1
f835
9439
4d1d
5f68
c648
0cb9
4be6
a4b0
17fe
086e
fe18
871d
7482
016a
62cc
cfdf
d2d0
ed61
8c2c
e11d
6763
64f2
93d1
3f39
0c06
f37d
5af3
81e6
38ca
5c5f
a50b
7849
1d62
283b
69b4
4598
ce22
b10c
7688
f12d
3a04
e961
f856
02f2
4e13
e37c
c65f
e830
2b2c
db59
4647
71a5
1352
5775
2875
53bf
d784
4c94
8fa8
9066
70ed
e365
eccb
7565
852c
e2e6
3c0b
6228
8f13
789d
2062
4469
5dc2
6bda
f9f2
5a79
566b
c437
d3e6
0819
6ee4
6706
8f5e
f16a
3a18
747a
0d3c
1d17
5d06
5d7c
4070
cb20
ee3a
582b
231c
3757
ff15
5cab
4f58
2429
f0a1
ff96
5c35
6491
d36c
1e0f
e286
48e1
b369
01c8
62f1
fe14
5c4b
c83e
3087
57e0
5554
51c4
73f0
c05a
623e
e96a
fc20
7ad1
087c
c12b
0d2d
3dc1
3774
6cf5
607d
447d
21d9
2b0d
648d
6e68
72d0
d2a8
86b9
a034
d492
3af5
275a
c43e
5d22
0be6
1e06
b049
4530
7e92
763f
5dde
8bfe
fbe6
ffe9
2a03
4313
6426
845d
0906
a261
b2b6
5d52
fe75
b28d
5a6d
b0e6
3770
de4a
62b8
6207
d0d1
6b14
64a1
724a
98ec
65c8
2c37
61b6
c25d
7d60
d3df
de42
29bd
0fff
1e21
2a77
8484
ac5d
9b98
3a5a
62b1
0d1b
2915
29e1
6579
2f79
526d
e5cf
a642
634b
d043
7868
6a5d
f738
4e82
d5a9
374f
5942
1045
61ae
785b
a9a8
bd0d
18e8
60cf
761e
4d35
21cf
fc26
4dcf
1788
7906
1cb9
dc16
914e
2a9a
5ae9
57c3
3afd
8b2d
f3d3
94d2
ca5a
7d0d
77fd
8987
5f18
7d77
2870
8b29
7314
6229
484e
64ed
fbe0
65a8
9e88
6cab
61ac
2f63
2004
75b3
1d3a
8d16
0dcb
5f66
715d
6119
8411
fee1
8589
6757
b4cb
e565
5d84
5d87
d65a
7d29
a665
5dfa
641c
ad20
7917
8406
dbd9
e838
4384
49e4
5338
6efd
ff3f
3a12
704b
7049
f842
ebee
b115
7bd1
ee75
70ff
eb4b
9bae
2856
5cec
0546
4e16
ff79
ac56
4c31
ecb5
6c35
5d9f
885d
d33f
1e28
2d48
e171
c747
9089
01ab
01c1
26e8
9af7
5776
0aae
b643
4432
7ce6
2866
3af9
5622
f29d
ad08
613e
7829
1020
901e
23c6
01b5
0a21
fe88
1ec0
39ca
8314
c26b
7a8e
bd29
40a8
6762
6245
ff73
6647
2d35
034b
21b7
a85c
41dd
7b81
fa1b
62e3
4a78
7815
d65d
8c24
62cf
0ffe
36c2
4399
6a8c
887c
8f55
7765
f228
76fc
77b0
3ae5
47b9
de24
4288
e43a
5d9b
971d
24ed
e02c
7af0
d059
d1bd
2898
99ee
e7b7
65cb
d6b9
39ec
5c60
6e57
5c1d
286f
04c7
a051
a61d
e61b
9ff5
1e3f
0d99
071d
106e
7b28
8a6e
8a6b
5c89
2c19
2a6b
5a1a
2820
93e6
f92c
5f43
e4fe
4d2b
0d6a
6773
6351
422e
72d2
767b
04ea
6a65
3009
01d0
1032
ad96
a146
77d5
0fe8
64f8
e94f
2a2b
e0e9
1059
2dd4
4778
0ae7
ffee
1419
6772
72ff
726d
e21e
9afe
9de9
f35d
5a4e
0a63
5c39
829c
7d75
c3d2
5534
ccb7
fdae
2b2b
f3da
2dff
a0d0
70c6
2836
8ce6
37ec
33fc
1ef7
64bf
7dfa
7778
5db2
1e22
8db9
587c
4b47
844e
fad1
7e67
3cff
1dbd
2144
fa4b
a4ae
897c
48da
d70e
08fe
b584
e6b7
5c87
6c22
6723
80f1
7d3b
899e
8445
623f
8f81
5d0f
eac2
8d17
b503
a82d
0968
c2cc
9e14
5135
f554
bd62
6494
8669
2ea1
999b
2421
3fff
9893
fe91
7e14
a1d7
6218
2385
b8d4
6216
f566
9f14
93b9
059c
1ed4
5fd0
fa7d
1bee
0d03
2818
4d5c
973a
0820
01de
637a
f8ea
373f
3c6d
7008
f3f0
6efa
cee8
7262
afb8
d84b
73d1
b80c
52f1
f414
6cc6
5d9c
399e
3964
6115
2d54
8c34
6125
407c
89cc
67cf
6358
eccc
8e2b
35c2
4ab9
1d7c
6cb3
311c
02e8
75a6
413f
82e1
43a2
b5a7
4ad1
b065
81ed
01d8
8f06
7ae8
3769
79ff
37d2
4d62
07b9
0726
4b03
5777
8b0b
c308
d07d
572d
1d06
c83c
88f5
c3aa
7966
b628
5313
2ec0
72e1
d0dc
1442
41da
767c
e813
82e8
a6e8
8fb0
5f9d
862b
6254
8b28
0903
7214
581d
af5a
54be
bbf1
314d
44e2
7566
5ebf
7e27
5782
90ff
372f
655c
5538
acb0
237b
c136
6968
ff26
8b6e
8fba
a015
6118
ee27
6c7c
6bfe
44af
8f53
6453
625e
1fcb
4d57
2246
8f0e
3afc
4fff
891f
eb5b
4d64
2334
42c4
5c46
5aa0
f4ff
fa53
1f54
48c1
64c2
e91c
f9d8
3f08
bc13
2679
4a96
144e
6be6
1dd1
373b
57d3
d974
0a38
5ec8
92ed
d6d0
8f26
5fe1
38c4
405a
a68c
8f4a
2c4b
daf3
3b6d
64d3
fc34
8098
9796
409c
ea14
0c4d
7d3e
2114
d31b
0872
0585
427c
e2d1
c6b6
603a
6064
4463
5dcd
1774
fb5b
989e
417f
7dfe
3997
2a61
1d6d
790d
d884
6e5e
ce53
c7c3
7359
04eb
56e6
925b
5ebb
5cda
bab4
834d
510d
a8d0
1e94
92b9
7e38
5c8c
d3a0
a8a0
1029
c9fb
e4df
7e3a
9cac
5d78
7853
bbf9
4c70
6867
a6e0
8b6f
3707
7bcc
bea9
7fbe
8fb4
cc89
64be
c12a
1af2
5fca
8d5d
f7e9
0eec
6688
d6da
e038
533f
6cca
0295
dc1a
3d79
7078
7869
c4e6
375b
7051
858c
6106
5cc3
6a06
5238
6655
d262
7f6d
5d07
bbf2
01e0
b645
8f76
04e5
1770
8b45
3754
05d0
a2f9
4ca0
4cf5
1d4e
291c
7038
7446
8ff9
2afb
5adb
3771
ce77
76af
6ca2
385c
5ddd
65bf
228a
444b
2952
2929
77dd
e304
cb69
372a
9214
bc03
bb94
8bef
2959
5954
8f25
7768
62f0
a041
2074
236e
293d
7cc7
96fd
6542
ea70
306d
a3ce
c961
f6c8
ccb9
4095
04e9
9ba6
aea8
5c58
0342
4260
471d
37e6
fe2e
1ef6
e2b2
e2bd
2873
288c
07bb
ff61
1b3a
3628
7230
8f77
237a
a8b5
649e
64b3
5dca
183f
1451
23e6
bb52
65d1
1e52
5d16
5d12
e8ee
60b6
7be0
afff
43e5
ec48
2ab4
702c
5fc4
6e2a
4281
62eb
1e13
d635
a65d
0311
fb16
5343
5e17
664e
edbb
4043
102c
9f56
17f2
9d04
059b
8a49
60fd
ad56
5c97
6158
79a8
42c5
afa8
fff7
e1bd
6336
c992
7022
6c23
0de8
b88a
9e23
43b9
b5d1
747d
faf1
5dee
a729
b00c
357d
f6b0
46a7
b6c2
7c06
5f37
6146
30e6
d1b5
cd08
89d3
286c
375f
6571
e744
58ee
b56d
4632
40bf
01b0
753a
7eb9
f5e2
769a
3add
6359
f352
2375
6031
8f52
46d0
4a79
7d4d
4796
d7d0
f77d
4ed2
b23d
5515
2d85
b1b9
3668
95c3
ffd6
2d79
4f4c
4f4a
0bbe
e36d
785c
6513
dec0
a518
cbc6
0945
14c3
2236
8c2d
6bdb
0817
0aa9
9817
6293
cc19
9b3f
4168
16f0
3909
4a09
fe0d
9eb9
dc42
4d34
20d0
a831
d25b
377a
7763
5272
3649
1e72
0c14
694f
fa65
49b4
781a
926b
5cc7
4d6c
4b53
bb5a
12a6
d263
f671
037c
5af2
996b
8bb9
a5c8
61be
6a44
d429
7b21
104e
60da
aa26
c959
ecc8
3581
2c39
37c0
8d14
42c7
82ee
5db3
9d8d
e0e6
44b9
5814
694e
4364
8434
ff3d
616a
5468
47e6
5c56
5ec6
22f9
ee4d
83b2
3a1a
89e7
089d
ee23
3d97
662a
1434
759a
f1e6
5dc3
1dfa
647b
4e81
5eb3
8f86
0dff
8d39
da7e
0d1a
675f
89fa
d331
294c
b7ff
a821
64e1
fdf5
3d9b
3d44
d4bf
08fc
3e48
e6aa
674a
e0b4
4091
47cb
471a
3a44
7094
3855
246d
bada
376f
a6f0
65e9
6267
7e2a
0eb9
4679
9114
03a8
3726
965d
3618
b29a
9a66
1ce6
2887
ce42
c544
7c35
fb1d
7da7
b804
dbd8
ed13
8f70
881c
b0c2
17e5
a23c
6610
6842
44cf
5c7d
7fe5
1dd3
0829
6206
b285
ab10
425e
7ba1
800d
bca8
cce1
7b29
866c
7018
5ad1
badb
4954
3608
8f9d
31ec
2bfa
3de6
d9ef
924e
5379
1d18
470d
698f
833d
a334
e77d
15ff
6c4b
ca5b
665d
2b04
6509
68c2
e242
86e9
fd03
5c4a
3d10
6908
5a65
8f2e
37a1
fa07
8524
2272
ef11
6129
4a53
ec6c
f214
baea
850d
5eec
afaf
2556
650c
7756
7b3a
8b18
6c14
5df5
5873
1374
5e70
1d76
1066
366e
1e7f
5ecf
3c7d
c1fe
9393
76e2
ff63
c868
5a13
ee88
4d11
da64
9a23
85e9
acd3
44fe
8ced
3fe7
8004
fe4e
52c3
f52a
b27a
ff93
2d4c
194d
4eec
3c93
a465
a0c2
63f6
367d
0572
4176
5ed1
6a1d
8095
23da
8eb3
8d06
7b47
1799
440d
e4d7
bf0c
2442
53fa
640b
1ec8
bd42
525b
5df8
61d9
670b
63fa
5e88
0987
795d
8944
deea
5d74
2874
a8b0
a3de
0df3
f921
1ed3
f2e1
fc14
0cf5
7974
2db6
ed0c
7848
fa5b
09ea
2910
4e96
ff4d
59dc
648f
9811
fc03
0bfe
60b0
4f5d
6a68
7151
f962
0d61
0919
5df1
57ea
bb3d
eeac
3f05
4f72
4392
77b8
4a75
748f
f26b
82ef
aca9
a132
0855
0ab9
1e6d
7203
774e
8a5d
97f5
a5ce
8cbc
61d5
af53
b3ce
9d91
77ff
6024
7f5d
dc63
653c
fe92
1e07
6c11
4870
3b79
8f2a
6ecc
6ee3
631d
d7ff
a995
4768
7cdf
6a51
d051
ed1a
ed57
42e9
35a2
3d37
53a6
6257
8b56
c970
6c58
a26d
b5ae
66a2
5d92
3195
617e
97ba
8ff8
3162
7255
443d
e1d8
2eee
87e9
3619
3652
5565
d843
312d
65b5
6209
5ed8
fa42
30b1
54b7
725d
68fb
95b8
0d05
64b2
c861
410d
088f
d528
af4b
7db8
283e
64f3
6754
780d
a904
db13
08a1
020b
7c32
302a
fca5
8d7d
360b
62df
1ed8
b1cd
6547
62a5
51eb
6627
49cc
ffeb
3724
593d
2dae
2306
7d62
fb62
652b
7605
1bff
0dd1
48d0
371f
f9ff
4770
7d51
b879
c5d1
7ab9
4169
315b
ffe3
8563
b2fb
35fa
dbe6
e55c
2a14
672e
ada4
e722
3a3d
634f
e0e0
ecf3
654e
0522
4472
b1c3
64db
ee2a
8fdb
f347
6a3b
282f
a4e5
56b9
5f08
7199
58ef
5a6c
78ed
5120
ba5b
d4f6
7514
3d87
394d
f9ac
2d44
4d4f
2a46
7925
8128
0319
6781
c279
7544
9cb1
8881
63bc
c832
695f
67e1
ad14
bb04
4d21
1362
6a14
7e12
b27d
6b44
eb5d
5ce5
a06c
1d0d
3d19
01bc
6ed8
8830
da55
17b9
79db
4c89
6b35
a8df
a5d7
4a30
034f
7d37
0ffc
d0c8
0860
a648
384e
9b33
4128
6e0d
5eab
44de
2016
ba49
031d
6e4a
5ca3
8f82
286b
a860
1626
3dc8
a2d6
1cb5
4105
f5f5
9efc
43b0
b94d
2837
3709
477d
b35a
dbd0
4565
fa6d
0d6d
29a8
68cf
769b
a517
666d
6427
7ccd
fef1
b29d
7286
1633
6696
b2e6
784b
807b
60bf
44ed
9e98
3cb8
674e
23cd
ab61
1223
f0fe
afda
03ba
61da
8fe8
0ec7
785f
7f9b
